{
  "version": "1.0",
  "truncation": null,
  "padding": null,
  "added_tokens": [
    {
      "id": 0,
      "content": "<unk>",
      "single_word": false,
      "lstrip": false,
      "rstrip": false,
      "normalized": false,
      "special": true
    },
    {
      "id": 1,
      "content": "<pad>",
      "single_word": false,
      "lstrip": false,
      "rstrip": false,
      "normalized": false,
      "special": true
    },
    {
      "id": 2,
      "content": "<sos>",
      "single_word": false,
      "lstrip": false,
      "rstrip": false,
      "normalized": false,
      "special": true
    },
    {
      "id": 3,
      "content": "<eos>",
      "single_word": false,
      "lstrip": false,
      "rstrip": false,
      "normalized": false,
      "special": true
    },
    {
      "id": 4,
      "content": "<mask>",
      "single_word": false,
      "lstrip": false,
      "rstrip": false,
      "normalized": false,
      "special": true
    }
  ],
  "normalizer": {
    "type": "Sequence",
    "normalizers": [
      {
        "type": "BertNormalizer",
        "clean_text": true,
        "handle_chinese_chars": true,
        "strip_accents": null,
        "lowercase": false
      },
      {
        "type": "Lowercase"
      }
    ]
  },
  "pre_tokenizer": {
    "type": "BertPreTokenizer"
  },
  "post_processor": null,
  "decoder": {
    "type": "BPEDecoder",
    "suffix": ""
  },
  "model": {
    "type": "BPE",
    "dropout": null,
    "unk_token": "<unk>",
    "continuing_subword_prefix": null,
    "end_of_word_suffix": "",
    "fuse_unk": false,
    "byte_fallback": false,
    "vocab": {
      "<unk>": 0,
      "<pad>": 1,
      "<sos>": 2,
      "<eos>": 3,
      "<mask>": 4,
      "!": 5,
      "#": 6,
      "$": 7,
      "%": 8,
      "&": 9,
      "(": 10,
      ")": 11,
      "+": 12,
      ",": 13,
      "-": 14,
      ".": 15,
      "/": 16,
      "0": 17,
      "1": 18,
      "2": 19,
      "3": 20,
      "4": 21,
      "5": 22,
      "6": 23,
      "7": 24,
      "8": 25,
      "9": 26,
      ":": 27,
      ";": 28,
      "=": 29,
      "?": 30,
      "\\": 31,
      "^": 32,
      "a": 33,
      "b": 34,
      "c": 35,
      "d": 36,
      "e": 37,
      "f": 38,
      "g": 39,
      "h": 40,
      "i": 41,
      "j": 42,
      "k": 43,
      "l": 44,
      "m": 45,
      "n": 46,
      "o": 47,
      "p": 48,
      "q": 49,
      "r": 50,
      "s": 51,
      "t": 52,
      "u": 53,
      "v": 54,
      "w": 55,
      "x": 56,
      "y": 57,
      "z": 58,
      "{": 59,
      "}": 60,
      "~": 61,
      "¡": 62,
      "¢": 63,
      "£": 64,
      "¤": 65,
      "¥": 66,
      "¦": 67,
      "§": 68,
      "¨": 69,
      "©": 70,
      "ª": 71,
      "«": 72,
      "¬": 73,
      "®": 74,
      "¯": 75,
      "°": 76,
      "±": 77,
      "²": 78,
      "³": 79,
      "´": 80,
      "µ": 81,
      "¶": 82,
      "·": 83,
      "¸": 84,
      "¹": 85,
      "º": 86,
      "»": 87,
      "¼": 88,
      "½": 89,
      "¾": 90,
      "¿": 91,
      "×": 92,
      "ß": 93,
      "à": 94,
      "á": 95,
      "â": 96,
      "ã": 97,
      "ä": 98,
      "å": 99,
      "æ": 100,
      "ç": 101,
      "è": 102,
      "é": 103,
      "ê": 104,
      "ë": 105,
      "ì": 106,
      "í": 107,
      "î": 108,
      "ï": 109,
      "ð": 110,
      "ñ": 111,
      "ò": 112,
      "ó": 113,
      "ô": 114,
      "õ": 115,
      "ö": 116,
      "÷": 117,
      "ø": 118,
      "ù": 119,
      "ú": 120,
      "û": 121,
      "ü": 122,
      "ý": 123,
      "þ": 124,
      "ÿ": 125,
      "ā": 126,
      "ă": 127,
      "ą": 128,
      "ć": 129,
      "ĉ": 130,
      "č": 131,
      "ď": 132,
      "đ": 133,
      "ē": 134,
      "ĕ": 135,
      "ė": 136,
      "ę": 137,
      "ě": 138,
      "ĝ": 139,
      "ğ": 140,
      "ġ": 141,
      "ģ": 142,
      "ħ": 143,
      "ĩ": 144,
      "ī": 145,
      "į": 146,
      "ı": 147,
      "ĵ": 148,
      "ķ": 149,
      "ĺ": 150,
      "ļ": 151,
      "ľ": 152,
      "ł": 153,
      "ń": 154,
      "ņ": 155,
      "ň": 156,
      "ō": 157,
      "ŏ": 158,
      "ő": 159,
      "œ": 160,
      "ŕ": 161,
      "ř": 162,
      "ś": 163,
      "ŝ": 164,
      "ş": 165,
      "š": 166,
      "ţ": 167,
      "ť": 168,
      "ũ": 169,
      "ū": 170,
      "ŭ": 171,
      "ů": 172,
      "ű": 173,
      "ų": 174,
      "ź": 175,
      "ż": 176,
      "ž": 177,
      "ſ": 178,
      "ƒ": 179,
      "ơ": 180,
      "ư": 181,
      "ǎ": 182,
      "ǐ": 183,
      "ǔ": 184,
      "ș": 185,
      "ț": 186,
      "ɐ": 187,
      "ɑ": 188,
      "ɔ": 189,
      "ə": 190,
      "ɛ": 191,
      "ɨ": 192,
      "ɪ": 193,
      "ɫ": 194,
      "ɲ": 195,
      "ɹ": 196,
      "ɾ": 197,
      "ʀ": 198,
      "ʃ": 199,
      "ʊ": 200,
      "ʒ": 201,
      "ʲ": 202,
      "ʼ": 203,
      "ʿ": 204,
      "ˆ": 205,
      "ˈ": 206,
      "ˌ": 207,
      "ː": 208,
      "˙": 209,
      "˚": 210,
      "˛": 211,
      "˜": 212,
      "˝": 213,
      "́": 214,
      "̃": 215,
      "̆": 216,
      "̇": 217,
      "̈": 218,
      "̍": 219,
      "̤": 220,
      "ΐ": 221,
      "ά": 222,
      "έ": 223,
      "ή": 224,
      "ί": 225,
      "α": 226,
      "β": 227,
      "γ": 228,
      "δ": 229,
      "ε": 230,
      "ζ": 231,
      "η": 232,
      "θ": 233,
      "ι": 234,
      "κ": 235,
      "λ": 236,
      "μ": 237,
      "ν": 238,
      "ξ": 239,
      "ο": 240,
      "π": 241,
      "ρ": 242,
      "ς": 243,
      "σ": 244,
      "τ": 245,
      "υ": 246,
      "φ": 247,
      "χ": 248,
      "ψ": 249,
      "ω": 250,
      "ϊ": 251,
      "ϋ": 252,
      "ό": 253,
      "ύ": 254,
      "ώ": 255,
      "а": 256,
      "б": 257,
      "в": 258,
      "г": 259,
      "д": 260,
      "е": 261,
      "ж": 262,
      "з": 263,
      "и": 264,
      "й": 265,
      "к": 266,
      "л": 267,
      "м": 268,
      "н": 269,
      "о": 270,
      "п": 271,
      "р": 272,
      "с": 273,
      "т": 274,
      "у": 275,
      "ф": 276,
      "х": 277,
      "ц": 278,
      "ч": 279,
      "ш": 280,
      "щ": 281,
      "ъ": 282,
      "ы": 283,
      "ь": 284,
      "э": 285,
      "ю": 286,
      "я": 287,
      "ё": 288,
      "ђ": 289,
      "ѓ": 290,
      "є": 291,
      "ѕ": 292,
      "і": 293,
      "ї": 294,
      "ј": 295,
      "љ": 296,
      "њ": 297,
      "ћ": 298,
      "ќ": 299,
      "ў": 300,
      "џ": 301,
      "ґ": 302,
      "ғ": 303,
      "ҙ": 304,
      "қ": 305,
      "ҡ": 306,
      "ң": 307,
      "ү": 308,
      "ұ": 309,
      "һ": 310,
      "ә": 311,
      "ө": 312,
      "ְ": 313,
      "ֳ": 314,
      "ִ": 315,
      "ַ": 316,
      "ָ": 317,
      "ֹ": 318,
      "ּ": 319,
      "ֿ": 320,
      "א": 321,
      "ב": 322,
      "ג": 323,
      "ד": 324,
      "ה": 325,
      "ו": 326,
      "ז": 327,
      "ח": 328,
      "ט": 329,
      "י": 330,
      "כ": 331,
      "ל": 332,
      "ם": 333,
      "מ": 334,
      "ן": 335,
      "נ": 336,
      "ס": 337,
      "ע": 338,
      "פ": 339,
      "ץ": 340,
      "צ": 341,
      "ק": 342,
      "ר": 343,
      "ש": 344,
      "ת": 345,
      "،": 346,
      "ء": 347,
      "آ": 348,
      "أ": 349,
      "إ": 350,
      "ئ": 351,
      "ا": 352,
      "ب": 353,
      "ة": 354,
      "ت": 355,
      "ث": 356,
      "ج": 357,
      "ح": 358,
      "خ": 359,
      "د": 360,
      "ذ": 361,
      "ر": 362,
      "ز": 363,
      "س": 364,
      "ش": 365,
      "ص": 366,
      "ض": 367,
      "ط": 368,
      "ع": 369,
      "غ": 370,
      "ـ": 371,
      "ف": 372,
      "ق": 373,
      "ك": 374,
      "ل": 375,
      "م": 376,
      "ن": 377,
      "ه": 378,
      "و": 379,
      "ى": 380,
      "ي": 381,
      "ً": 382,
      "َ": 383,
      "ُ": 384,
      "ِ": 385,
      "ّ": 386,
      "ْ": 387,
      "پ": 388,
      "ک": 389,
      "گ": 390,
      "ی": 391,
      "۞": 392,
      "۰": 393,
      "۱": 394,
      "۲": 395,
      "۷": 396,
      "۹": 397,
      "अ": 398,
      "क": 399,
      "च": 400,
      "त": 401,
      "द": 402,
      "न": 403,
      "प": 404,
      "ब": 405,
      "म": 406,
      "य": 407,
      "र": 408,
      "ल": 409,
      "श": 410,
      "स": 411,
      "ह": 412,
      "ा": 413,
      "ि": 414,
      "ी": 415,
      "ु": 416,
      "े": 417,
      "ो": 418,
      "्": 419,
      "ন": 420,
      "ব": 421,
      "ম": 422,
      "র": 423,
      "ি": 424,
      "ু": 425,
      "্": 426,
      "்": 427,
      "్": 428,
      "്": 429,
      "ก": 430,
      "ข": 431,
      "ค": 432,
      "ง": 433,
      "จ": 434,
      "ช": 435,
      "ญ": 436,
      "ฎ": 437,
      "ณ": 438,
      "ด": 439,
      "ต": 440,
      "ถ": 441,
      "ท": 442,
      "ธ": 443,
      "น": 444,
      "บ": 445,
      "ป": 446,
      "ผ": 447,
      "พ": 448,
      "ภ": 449,
      "ม": 450,
      "ย": 451,
      "ร": 452,
      "ล": 453,
      "ว": 454,
      "ศ": 455,
      "ษ": 456,
      "ส": 457,
      "ห": 458,
      "อ": 459,
      "ะ": 460,
      "ั": 461,
      "า": 462,
      "ำ": 463,
      "ิ": 464,
      "ี": 465,
      "ึ": 466,
      "ื": 467,
      "ุ": 468,
      "ู": 469,
      "฿": 470,
      "เ": 471,
      "แ": 472,
      "โ": 473,
      "ใ": 474,
      "ไ": 475,
      "็": 476,
      "่": 477,
      "้": 478,
      "์": 479,
      "ຸ": 480,
      "་": 481,
      "ა": 482,
      "ბ": 483,
      "გ": 484,
      "დ": 485,
      "ე": 486,
      "ვ": 487,
      "თ": 488,
      "ი": 489,
      "კ": 490,
      "ლ": 491,
      "მ": 492,
      "ნ": 493,
      "ო": 494,
      "რ": 495,
      "ს": 496,
      "ტ": 497,
      "უ": 498,
      "შ": 499,
      "ხ": 500,
      "መ": 501,
      "ም": 502,
      "ረ": 503,
      "ር": 504,
      "ቀ": 505,
      "በ": 506,
      "ተ": 507,
      "አ": 508,
      "ኣ": 509,
      "ክ": 510,
      "ዓ": 511,
      "የ": 512,
      "ይ": 513,
      "ገ": 514,
      "ጽ": 515,
      "ḥ": 516,
      "ṃ": 517,
      "ṛ": 518,
      "ṭ": 519,
      "ṳ": 520,
      "ạ": 521,
      "ả": 522,
      "ậ": 523,
      "ế": 524,
      "ề": 525,
      "ễ": 526,
      "ệ": 527,
      "ố": 528,
      "ồ": 529,
      "ổ": 530,
      "ộ": 531,
      "ớ": 532,
      "ờ": 533,
      "ợ": 534,
      "ủ": 535,
      "ữ": 536,
      "ỹ": 537,
      "ἰ": 538,
      "‐": 539,
      "‑": 540,
      "–": 541,
      "—": 542,
      "―": 543,
      "‘": 544,
      "’": 545,
      "‚": 546,
      "‛": 547,
      "“": 548,
      "”": 549,
      "„": 550,
      "‟": 551,
      "†": 552,
      "‡": 553,
      "•": 554,
      "…": 555,
      "‰": 556,
      "′": 557,
      "″": 558,
      "‹": 559,
      "›": 560,
      "※": 561,
      "⁄": 562,
      "₂": 563,
      "₤": 564,
      "₩": 565,
      "€": 566,
      "℃": 567,
      "№": 568,
      "™": 569,
      "←": 570,
      "↑": 571,
      "→": 572,
      "⇒": 573,
      "⇢": 574,
      "−": 575,
      "√": 576,
      "∞": 577,
      "≈": 578,
      "≤": 579,
      "≥": 580,
      "≪": 581,
      "≫": 582,
      "⋅": 583,
      "─": 584,
      "│": 585,
      "╚": 586,
      "╩": 587,
      "█": 588,
      "▒": 589,
      "■": 590,
      "▪": 591,
      "►": 592,
      "▼": 593,
      "◆": 594,
      "◊": 595,
      "○": 596,
      "◎": 597,
      "●": 598,
      "★": 599,
      "☆": 600,
      "♀": 601,
      "♠": 602,
      "♣": 603,
      "♥": 604,
      "♦": 605,
      "♪": 606,
      "✿": 607,
      "➲": 608,
      "、": 609,
      "。": 610,
      "《": 611,
      "》": 612,
      "「": 613,
      "」": 614,
      "『": 615,
      "』": 616,
      "【": 617,
      "】": 618,
      "あ": 619,
      "い": 620,
      "う": 621,
      "お": 622,
      "か": 623,
      "が": 624,
      "き": 625,
      "く": 626,
      "け": 627,
      "こ": 628,
      "さ": 629,
      "し": 630,
      "じ": 631,
      "す": 632,
      "せ": 633,
      "た": 634,
      "だ": 635,
      "ち": 636,
      "っ": 637,
      "つ": 638,
      "て": 639,
      "で": 640,
      "と": 641,
      "な": 642,
      "に": 643,
      "の": 644,
      "は": 645,
      "ば": 646,
      "ま": 647,
      "み": 648,
      "め": 649,
      "も": 650,
      "よ": 651,
      "ら": 652,
      "り": 653,
      "る": 654,
      "れ": 655,
      "わ": 656,
      "を": 657,
      "ん": 658,
      "ア": 659,
      "イ": 660,
      "ウ": 661,
      "オ": 662,
      "カ": 663,
      "キ": 664,
      "ク": 665,
      "コ": 666,
      "サ": 667,
      "シ": 668,
      "ジ": 669,
      "ス": 670,
      "セ": 671,
      "チ": 672,
      "ッ": 673,
      "テ": 674,
      "ト": 675,
      "ド": 676,
      "ナ": 677,
      "バ": 678,
      "パ": 679,
      "ビ": 680,
      "フ": 681,
      "マ": 682,
      "メ": 683,
      "ユ": 684,
      "ラ": 685,
      "リ": 686,
      "ル": 687,
      "レ": 688,
      "ワ": 689,
      "ン": 690,
      "・": 691,
      "ー": 692,
      "一": 693,
      "三": 694,
      "上": 695,
      "下": 696,
      "不": 697,
      "东": 698,
      "个": 699,
      "中": 700,
      "为": 701,
      "乐": 702,
      "乗": 703,
      "了": 704,
      "事": 705,
      "二": 706,
      "五": 707,
      "交": 708,
      "京": 709,
      "人": 710,
      "仁": 711,
      "以": 712,
      "会": 713,
      "体": 714,
      "余": 715,
      "作": 716,
      "你": 717,
      "信": 718,
      "修": 719,
      "元": 720,
      "克": 721,
      "免": 722,
      "入": 723,
      "八": 724,
      "公": 725,
      "六": 726,
      "内": 727,
      "円": 728,
      "出": 729,
      "分": 730,
      "切": 731,
      "利": 732,
      "前": 733,
      "剥": 734,
      "功": 735,
      "加": 736,
      "動": 737,
      "北": 738,
      "区": 739,
      "匿": 740,
      "十": 741,
      "华": 742,
      "南": 743,
      "博": 744,
      "原": 745,
      "去": 746,
      "参": 747,
      "发": 748,
      "取": 749,
      "口": 750,
      "只": 751,
      "可": 752,
      "台": 753,
      "司": 754,
      "合": 755,
      "吉": 756,
      "名": 757,
      "后": 758,
      "吗": 759,
      "吧": 760,
      "呼": 761,
      "和": 762,
      "啦": 763,
      "器": 764,
      "四": 765,
      "回": 766,
      "园": 767,
      "国": 768,
      "图": 769,
      "國": 770,
      "在": 771,
      "场": 772,
      "城": 773,
      "場": 774,
      "士": 775,
      "多": 776,
      "大": 777,
      "天": 778,
      "太": 779,
      "头": 780,
      "套": 781,
      "女": 782,
      "妻": 783,
      "娱": 784,
      "子": 785,
      "字": 786,
      "学": 787,
      "安": 788,
      "定": 789,
      "客": 790,
      "家": 791,
      "容": 792,
      "寺": 793,
      "寿": 794,
      "小": 795,
      "就": 796,
      "居": 797,
      "屋": 798,
      "山": 799,
      "島": 800,
      "川": 801,
      "州": 802,
      "市": 803,
      "帝": 804,
      "常": 805,
      "平": 806,
      "年": 807,
      "广": 808,
      "広": 809,
      "庆": 810,
      "应": 811,
      "店": 812,
      "廣": 813,
      "建": 814,
      "开": 815,
      "式": 816,
      "引": 817,
      "当": 818,
      "德": 819,
      "心": 820,
      "必": 821,
      "思": 822,
      "急": 823,
      "情": 824,
      "愛": 825,
      "我": 826,
      "戴": 827,
      "所": 828,
      "手": 829,
      "持": 830,
      "援": 831,
      "敏": 832,
      "教": 833,
      "文": 834,
      "新": 835,
      "方": 836,
      "日": 837,
      "明": 838,
      "易": 839,
      "是": 840,
      "更": 841,
      "書": 842,
      "最": 843,
      "有": 844,
      "木": 845,
      "本": 846,
      "机": 847,
      "李": 848,
      "村": 849,
      "来": 850,
      "東": 851,
      "板": 852,
      "林": 853,
      "株": 854,
      "楽": 855,
      "正": 856,
      "武": 857,
      "比": 858,
      "民": 859,
      "気": 860,
      "氣": 861,
      "水": 862,
      "江": 863,
      "治": 864,
      "测": 865,
      "浦": 866,
      "海": 867,
      "深": 868,
      "清": 869,
      "港": 870,
      "湖": 871,
      "湯": 872,
      "湾": 873,
      "漢": 874,
      "然": 875,
      "焼": 876,
      "片": 877,
      "物": 878,
      "特": 879,
      "王": 880,
      "珠": 881,
      "球": 882,
      "理": 883,
      "生": 884,
      "用": 885,
      "田": 886,
      "电": 887,
      "疫": 888,
      "白": 889,
      "的": 890,
      "皇": 891,
      "直": 892,
      "相": 893,
      "県": 894,
      "知": 895,
      "石": 896,
      "社": 897,
      "神": 898,
      "禅": 899,
      "种": 900,
      "科": 901,
      "空": 902,
      "立": 903,
      "站": 904,
      "简": 905,
      "管": 906,
      "米": 907,
      "線": 908,
      "网": 909,
      "羅": 910,
      "美": 911,
      "能": 912,
      "腹": 913,
      "自": 914,
      "臺": 915,
      "舖": 916,
      "舞": 917,
      "舫": 918,
      "色": 919,
      "花": 920,
      "茶": 921,
      "華": 922,
      "藤": 923,
      "蛋": 924,
      "行": 925,
      "街": 926,
      "表": 927,
      "西": 928,
      "見": 929,
      "见": 930,
      "解": 931,
      "言": 932,
      "記": 933,
      "話": 934,
      "語": 935,
      "読": 936,
      "语": 937,
      "谷": 938,
      "赌": 939,
      "越": 940,
      "路": 941,
      "载": 942,
      "过": 943,
      "近": 944,
      "这": 945,
      "选": 946,
      "通": 947,
      "道": 948,
      "郎": 949,
      "部": 950,
      "都": 951,
      "酒": 952,
      "釉": 953,
      "里": 954,
      "重": 955,
      "金": 956,
      "鋓": 957,
      "鋘": 958,
      "鋜": 959,
      "長": 960,
      "門": 961,
      "関": 962,
      "门": 963,
      "问": 964,
      "降": 965,
      "雄": 966,
      "雷": 967,
      "電": 968,
      "青": 969,
      "面": 970,
      "音": 971,
      "頂": 972,
      "页": 973,
      "顶": 974,
      "题": 975,
      "風": 976,
      "风": 977,
      "食": 978,
      "館": 979,
      "香": 980,
      "馬": 981,
      "駅": 982,
      "马": 983,
      "高": 984,
      "黄": 985,
      "龙": 986,
      "구": 987,
      "국": 988,
      "년": 989,
      "로": 990,
      "서": 991,
      "어": 992,
      "이": 993,
      "한": 994,
      "ﬁ": 995,
      "ﬂ": 996,
      "！": 997,
      "（": 998,
      "）": 999,
      "，": 1000,
      "－": 1001,
      "：": 1002,
      "；": 1003,
      "￥": 1004,
      "en": 1005,
      "er": 1006,
      "in": 1007,
      "ch": 1008,
      "th": 1009,
      "an": 1010,
      "at": 1011,
      "es": 1012,
      "on": 1013,
      "un": 1014,
      "is": 1015,
      "it": 1016,
      "the": 1017,
      "re": 1018,
      "ie": 1019,
      "al": 1020,
      "or": 1021,
      "st": 1022,
      "ar": 1023,
      "der": 1024,
      "ich": 1025,
      "as": 1026,
      "ion": 1027,
      "le": 1028,
      "ro": 1029,
      "be": 1030,
      "te": 1031,
      "au": 1032,
      "and": 1033,
      "ge": 1034,
      "ein": 1035,
      "of": 1036,
      "de": 1037,
      "to": 1038,
      "ent": 1039,
      "ur": 1040,
      "die": 1041,
      "und": 1042,
      "ung": 1043,
      "ing": 1044,
      "wi": 1045,
      "se": 1046,
      "om": 1047,
      "ver": 1048,
      "den": 1049,
      "ig": 1050,
      "we": 1051,
      "ll": 1052,
      "am": 1053,
      "ic": 1054,
      "sch": 1055,
      "im": 1056,
      "ter": 1057,
      "zu": 1058,
      "ed": 1059,
      "for": 1060,
      "ab": 1061,
      "ou": 1062,
      "ten": 1063,
      "il": 1064,
      "po": 1065,
      "ation": 1066,
      "di": 1067,
      "ra": 1068,
      "ber": 1069,
      "ve": 1070,
      "pro": 1071,
      "ne": 1072,
      "so": 1073,
      "ist": 1074,
      "ot": 1075,
      "hr": 1076,
      "ct": 1077,
      "gen": 1078,
      "das": 1079,
      "lich": 1080,
      "um": 1081,
      "pe": 1082,
      "em": 1083,
      "all": 1084,
      "eu": 1085,
      "fü": 1086,
      "mit": 1087,
      "qu": 1088,
      "ke": 1089,
      "ut": 1090,
      "wir": 1091,
      "lo": 1092,
      "isch": 1093,
      "us": 1094,
      "icht": 1095,
      "com": 1096,
      "auf": 1097,
      "pr": 1098,
      "con": 1099,
      "ho": 1100,
      "ier": 1101,
      "that": 1102,
      "ce": 1103,
      "est": 1104,
      "ma": 1105,
      "la": 1106,
      "co": 1107,
      "wer": 1108,
      "aus": 1109,
      "von": 1110,
      "are": 1111,
      "ly": 1112,
      "he": 1113,
      "des": 1114,
      "men": 1115,
      "me": 1116,
      "ess": 1117,
      "ir": 1118,
      "ad": 1119,
      "mo": 1120,
      "par": 1121,
      "für": 1122,
      "wh": 1123,
      "ach": 1124,
      "dies": 1125,
      "su": 1126,
      "gr": 1127,
      "id": 1128,
      "with": 1129,
      "ul": 1130,
      "eine": 1131,
      "euro": 1132,
      "kt": 1133,
      "sie": 1134,
      "pos": 1135,
      "tr": 1136,
      "no": 1137,
      "ort": 1138,
      "ges": 1139,
      "af": 1140,
      "if": 1141,
      "ere": 1142,
      "ck": 1143,
      "ld": 1144,
      "ind": 1145,
      "per": 1146,
      "ts": 1147,
      "ta": 1148,
      "this": 1149,
      "ment": 1150,
      "our": 1151,
      "ha": 1152,
      "ste": 1153,
      "da": 1154,
      "sp": 1155,
      "ate": 1156,
      "li": 1157,
      "ze": 1158,
      "ex": 1159,
      "vor": 1160,
      "ol": 1161,
      "dem": 1162,
      "sen": 1163,
      "her": 1164,
      "ben": 1165,
      "ungen": 1166,
      "über": 1167,
      "nen": 1168,
      "sich": 1169,
      "ischen": 1170,
      "00": 1171,
      "ser": 1172,
      "tz": 1173,
      "fe": 1174,
      "not": 1175,
      "ant": 1176,
      "str": 1177,
      "man": 1178,
      "iv": 1179,
      "fa": 1180,
      "nicht": 1181,
      "sion": 1182,
      "ity": 1183,
      "än": 1184,
      "ive": 1185,
      "ies": 1186,
      "wor": 1187,
      "by": 1188,
      "end": 1189,
      "quot": 1190,
      "kom": 1191,
      "you": 1192,
      "lie": 1193,
      "fer": 1194,
      "auch": 1195,
      "do": 1196,
      "apos": 1197,
      "mis": 1198,
      "was": 1199,
      "werden": 1200,
      "ib": 1201,
      "pa": 1202,
      "inter": 1203,
      "ger": 1204,
      "als": 1205,
      "fr": 1206,
      "port": 1207,
      "du": 1208,
      "wie": 1209,
      "have": 1210,
      "dass": 1211,
      "op": 1212,
      "unter": 1213,
      "ht": 1214,
      "will": 1215,
      "igen": 1216,
      "tel": 1217,
      "tra": 1218,
      "ann": 1219,
      "ther": 1220,
      "ag": 1221,
      "res": 1222,
      "ap": 1223,
      "sh": 1224,
      "rom": 1225,
      "its": 1226,
      "lt": 1227,
      "ien": 1228,
      "ial": 1229,
      "ah": 1230,
      "bes": 1231,
      "ould": 1232,
      "je": 1233,
      "pl": 1234,
      "ac": 1235,
      "form": 1236,
      "br": 1237,
      "fin": 1238,
      "hal": 1239,
      "which": 1240,
      "war": 1241,
      "from": 1242,
      "pol": 1243,
      "ungs": 1244,
      "ust": 1245,
      "can": 1246,
      "fo": 1247,
      "ted": 1248,
      "europe": 1249,
      "wo": 1250,
      "ik": 1251,
      "bei": 1252,
      "up": 1253,
      "mission": 1254,
      "one": 1255,
      "reg": 1256,
      "hen": 1257,
      "has": 1258,
      "schaf": 1259,
      "ite": 1260,
      "sind": 1261,
      "out": 1262,
      "mer": 1263,
      "einer": 1264,
      "ident": 1265,
      "ay": 1266,
      "able": 1267,
      "iel": 1268,
      "ions": 1269,
      "part": 1270,
      "mar": 1271,
      "ih": 1272,
      "nach": 1273,
      "lu": 1274,
      "bo": 1275,
      "wird": 1276,
      "go": 1277,
      "el": 1278,
      "wen": 1279,
      "ans": 1280,
      "ip": 1281,
      "gan": 1282,
      "aben": 1283,
      "rech": 1284,
      "llen": 1285,
      "lin": 1286,
      "dr": 1287,
      "kon": 1288,
      "ön": 1289,
      "einen": 1290,
      "fen": 1291,
      "sam": 1292,
      "ure": 1293,
      "dur": 1294,
      "et": 1295,
      "ische": 1296,
      "ide": 1297,
      "pres": 1298,
      "ür": 1299,
      "hat": 1300,
      "coun": 1301,
      "mö": 1302,
      "gro": 1303,
      "zur": 1304,
      "ft": 1305,
      "ken": 1306,
      "oder": 1307,
      "ise": 1308,
      "fre": 1309,
      "europ": 1310,
      "iten": 1311,
      "iz": 1312,
      "ern": 1313,
      "ange": 1314,
      "uns": 1315,
      "ill": 1316,
      "also": 1317,
      "land": 1318,
      "min": 1319,
      "hren": 1320,
      "age": 1321,
      "ament": 1322,
      "200": 1323,
      "spe": 1324,
      "haben": 1325,
      "hotel": 1326,
      "sy": 1327,
      "ple": 1328,
      "arbe": 1329,
      "stat": 1330,
      "sel": 1331,
      "there": 1332,
      "ally": 1333,
      "ia": 1334,
      "european": 1335,
      "son": 1336,
      "nation": 1337,
      "kön": 1338,
      "europä": 1339,
      "ard": 1340,
      "ass": 1341,
      "ige": 1342,
      "ction": 1343,
      "pre": 1344,
      "che": 1345,
      "lichen": 1346,
      "ice": 1347,
      "ition": 1348,
      "alle": 1349,
      "very": 1350,
      "rat": 1351,
      "dar": 1352,
      "ations": 1353,
      "art": 1354,
      "durch": 1355,
      "dern": 1356,
      "wä": 1357,
      "but": 1358,
      "gu": 1359,
      "produ": 1360,
      "ous": 1361,
      "uss": 1362,
      "ät": 1363,
      "chen": 1364,
      "ers": 1365,
      "ated": 1366,
      "bar": 1367,
      "sten": 1368,
      "tre": 1369,
      "gt": 1370,
      "ja": 1371,
      "dis": 1372,
      "polit": 1373,
      "inc": 1374,
      "tim": 1375,
      "king": 1376,
      "aten": 1377,
      "diese": 1378,
      "ob": 1379,
      "your": 1380,
      "bere": 1381,
      "union": 1382,
      "vo": 1383,
      "ieren": 1384,
      "hand": 1385,
      "sta": 1386,
      "wn": 1387,
      "pla": 1388,
      "national": 1389,
      "ble": 1390,
      "weit": 1391,
      "hl": 1392,
      "schaft": 1393,
      "ult": 1394,
      "ander": 1395,
      "ear": 1396,
      "ight": 1397,
      "kann": 1398,
      "wur": 1399,
      "einem": 1400,
      "bu": 1401,
      "iert": 1402,
      "äs": 1403,
      "cess": 1404,
      "ue": 1405,
      "tet": 1406,
      "more": 1407,
      "ff": 1408,
      "bl": 1409,
      "teil": 1410,
      "herr": 1411,
      "ish": 1412,
      "use": 1413,
      "ord": 1414,
      "od": 1415,
      "mon": 1416,
      "stem": 1417,
      "keit": 1418,
      "stand": 1419,
      "19": 1420,
      "ner": 1421,
      "other": 1422,
      "ko": 1423,
      "hin": 1424,
      "ün": 1425,
      "pt": 1426,
      "fra": 1427,
      "können": 1428,
      "inst": 1429,
      "ical": 1430,
      "igh": 1431,
      "cht": 1432,
      "tro": 1433,
      "hmen": 1434,
      "zeit": 1435,
      "ank": 1436,
      "gesch": 1437,
      "wenn": 1438,
      "mr": 1439,
      "ance": 1440,
      "ome": 1441,
      "liche": 1442,
      "new": 1443,
      "commission": 1444,
      "zum": 1445,
      "ign": 1446,
      "system": 1447,
      "work": 1448,
      "sit": 1449,
      "geb": 1450,
      "ang": 1451,
      "kl": 1452,
      "ary": 1453,
      "ör": 1454,
      "under": 1455,
      "would": 1456,
      "är": 1457,
      "leg": 1458,
      "cent": 1459,
      "gh": 1460,
      "sa": 1461,
      "ember": 1462,
      "now": 1463,
      "their": 1464,
      "serv": 1465,
      "ihre": 1466,
      "gre": 1467,
      "inform": 1468,
      "been": 1469,
      "ese": 1470,
      "ssen": 1471,
      "cr": 1472,
      "mein": 1473,
      "vie": 1474,
      "nur": 1475,
      "any": 1476,
      "imm": 1477,
      "ding": 1478,
      "ev": 1479,
      "cial": 1480,
      "ile": 1481,
      "glich": 1482,
      "heit": 1483,
      "unser": 1484,
      "ins": 1485,
      "lle": 1486,
      "net": 1487,
      "mü": 1488,
      "ine": 1489,
      "log": 1490,
      "fol": 1491,
      "way": 1492,
      "pu": 1493,
      "zen": 1494,
      "progr": 1495,
      "dieser": 1496,
      "they": 1497,
      "mehr": 1498,
      "präs": 1499,
      "gel": 1500,
      "ak": 1501,
      "aber": 1502,
      "mat": 1503,
      "dam": 1504,
      "bet": 1505,
      "prov": 1506,
      "ihr": 1507,
      "should": 1508,
      "ase": 1509,
      "fir": 1510,
      "member": 1511,
      "who": 1512,
      "gegen": 1513,
      "kr": 1514,
      "ph": 1515,
      "europäischen": 1516,
      "ück": 1517,
      "noch": 1518,
      "ast": 1519,
      "sol": 1520,
      "ents": 1521,
      "cre": 1522,
      "cl": 1523,
      "ian": 1524,
      "fl": 1525,
      "arbeit": 1526,
      "ution": 1527,
      "best": 1528,
      "ty": 1529,
      "ments": 1530,
      "immer": 1531,
      "tzt": 1532,
      "kommission": 1533,
      "day": 1534,
      "präsident": 1535,
      "ong": 1536,
      "must": 1537,
      "like": 1538,
      "dire": 1539,
      "countr": 1540,
      "schen": 1541,
      "proble": 1542,
      "ces": 1543,
      "reich": 1544,
      "ierung": 1545,
      "ahl": 1546,
      "nat": 1547,
      "ded": 1548,
      "ktion": 1549,
      "bil": 1550,
      "stell": 1551,
      "these": 1552,
      "act": 1553,
      "program": 1554,
      "time": 1555,
      "fore": 1556,
      "daß": 1557,
      "nis": 1558,
      "sup": 1559,
      "20": 1560,
      "only": 1561,
      "year": 1562,
      "president": 1563,
      "soll": 1564,
      "sein": 1565,
      "tech": 1566,
      "ow": 1567,
      "cur": 1568,
      "änder": 1569,
      "gese": 1570,
      "sib": 1571,
      "ef": 1572,
      "gle": 1573,
      "ities": 1574,
      "get": 1575,
      "ire": 1576,
      "zie": 1577,
      "some": 1578,
      "ba": 1579,
      "my": 1580,
      "information": 1581,
      "wurde": 1582,
      "zw": 1583,
      "führ": 1584,
      "ds": 1585,
      "pen": 1586,
      "verb": 1587,
      "fu": 1588,
      "ßen": 1589,
      "ms": 1590,
      "utz": 1591,
      "zwe": 1592,
      "bis": 1593,
      "mal": 1594,
      "about": 1595,
      "glie": 1596,
      "assen": 1597,
      "chte": 1598,
      "sehr": 1599,
      "vis": 1600,
      "what": 1601,
      "bas": 1602,
      "cy": 1603,
      "viel": 1604,
      "kommen": 1605,
      "welt": 1606,
      "sicher": 1607,
      "grund": 1608,
      "cts": 1609,
      "ame": 1610,
      "hn": 1611,
      "mitglie": 1612,
      "av": 1613,
      "room": 1614,
      "fall": 1615,
      "cil": 1616,
      "pf": 1617,
      "alt": 1618,
      "möglich": 1619,
      "over": 1620,
      "international": 1621,
      "richt": 1622,
      "ok": 1623,
      "weiter": 1624,
      "qual": 1625,
      "int": 1626,
      "hier": 1627,
      "blic": 1628,
      "ause": 1629,
      "sub": 1630,
      "10": 1631,
      "such": 1632,
      "entwi": 1633,
      "neu": 1634,
      "nehmen": 1635,
      "need": 1636,
      "parl": 1637,
      "ious": 1638,
      "velo": 1639,
      "tain": 1640,
      "müssen": 1641,
      "nah": 1642,
      "ced": 1643,
      "wa": 1644,
      "stru": 1645,
      "finan": 1646,
      "gl": 1647,
      "develo": 1648,
      "inv": 1649,
      "parlament": 1650,
      "comp": 1651,
      "when": 1652,
      "legen": 1653,
      "deut": 1654,
      "most": 1655,
      "off": 1656,
      "det": 1657,
      "bal": 1658,
      "uch": 1659,
      "rit": 1660,
      "si": 1661,
      "just": 1662,
      "gemein": 1663,
      "mun": 1664,
      "xt": 1665,
      "ket": 1666,
      "ied": 1667,
      "person": 1668,
      "well": 1669,
      "med": 1670,
      "many": 1671,
      "parli": 1672,
      "parliament": 1673,
      "ci": 1674,
      "gar": 1675,
      "develop": 1676,
      "ors": 1677,
      "import": 1678,
      "trans": 1679,
      "wel": 1680,
      "ele": 1681,
      "mus": 1682,
      "how": 1683,
      "mittel": 1684,
      "fä": 1685,
      "gest": 1686,
      "dec": 1687,
      "ital": 1688,
      "oper": 1689,
      "wirt": 1690,
      "peop": 1691,
      "report": 1692,
      "sche": 1693,
      "jahr": 1694,
      "zusam": 1695,
      "ität": 1696,
      "ibt": 1697,
      "ular": 1698,
      "ater": 1699,
      "rel": 1700,
      "zusammen": 1701,
      "diesem": 1702,
      "ctive": 1703,
      "cle": 1704,
      "star": 1705,
      "fort": 1706,
      "atz": 1707,
      "ks": 1708,
      "states": 1709,
      "iger": 1710,
      "first": 1711,
      "wicht": 1712,
      "gleich": 1713,
      "people": 1714,
      "igt": 1715,
      "loc": 1716,
      "ster": 1717,
      "ures": 1718,
      "car": 1719,
      "igkeit": 1720,
      "staaten": 1721,
      "onder": 1722,
      "setz": 1723,
      "dieses": 1724,
      "erg": 1725,
      "unden": 1726,
      "ific": 1727,
      "besch": 1728,
      "organ": 1729,
      "ings": 1730,
      "kte": 1731,
      "ose": 1732,
      "gra": 1733,
      "halten": 1734,
      "into": 1735,
      "por": 1736,
      "come": 1737,
      "cause": 1738,
      "schl": 1739,
      "were": 1740,
      "geben": 1741,
      "rou": 1742,
      "world": 1743,
      "them": 1744,
      "bus": 1745,
      "view": 1746,
      "ateg": 1747,
      "lung": 1748,
      "rest": 1749,
      "ual": 1750,
      "region": 1751,
      "jo": 1752,
      "iven": 1753,
      "eines": 1754,
      "ility": 1755,
      "ßer": 1756,
      "ices": 1757,
      "cour": 1758,
      "ihnen": 1759,
      "io": 1760,
      "äu": 1761,
      "ru": 1762,
      "sed": 1763,
      "ative": 1764,
      "offer": 1765,
      "les": 1766,
      "12": 1767,
      "his": 1768,
      "stü": 1769,
      "möchte": 1770,
      "sicht": 1771,
      "tell": 1772,
      "mitglied": 1773,
      "stellen": 1774,
      "demo": 1775,
      "bie": 1776,
      "web": 1777,
      "dition": 1778,
      "than": 1779,
      "sk": 1780,
      "93": 1781,
      "frau": 1782,
      "bereich": 1783,
      "iden": 1784,
      "hel": 1785,
      "ens": 1786,
      "91": 1787,
      "änd": 1788,
      "unsere": 1789,
      "bin": 1790,
      "read": 1791,
      "bericht": 1792,
      "ating": 1793,
      "order": 1794,
      "vom": 1795,
      "gs": 1796,
      "pon": 1797,
      "cont": 1798,
      "amp": 1799,
      "entr": 1800,
      "weise": 1801,
      "lage": 1802,
      "isten": 1803,
      "see": 1804,
      "fun": 1805,
      "dien": 1806,
      "gew": 1807,
      "econ": 1808,
      "ga": 1809,
      "schlie": 1810,
      "zahl": 1811,
      "polic": 1812,
      "econom": 1813,
      "here": 1814,
      "eng": 1815,
      "proje": 1816,
      "zwischen": 1817,
      "ale": 1818,
      "agre": 1819,
      "support": 1820,
      "aga": 1821,
      "tt": 1822,
      "bre": 1823,
      "besonder": 1824,
      "sof": 1825,
      "countries": 1826,
      "währ": 1827,
      "where": 1828,
      "partic": 1829,
      "deb": 1830,
      "nung": 1831,
      "vers": 1832,
      "situ": 1833,
      "gener": 1834,
      "ustr": 1835,
      "forder": 1836,
      "red": 1837,
      "emp": 1838,
      "ory": 1839,
      "tern": 1840,
      "pun": 1841,
      "entwick": 1842,
      "akt": 1843,
      "sin": 1844,
      "ieden": 1845,
      "air": 1846,
      "politik": 1847,
      "gibt": 1848,
      "council": 1849,
      "menschen": 1850,
      "quest": 1851,
      "make": 1852,
      "dif": 1853,
      "nor": 1854,
      "leben": 1855,
      "halb": 1856,
      "fam": 1857,
      "inclu": 1858,
      "unterstü": 1859,
      "real": 1860,
      "öff": 1861,
      "tem": 1862,
      "sible": 1863,
      "take": 1864,
      "sowie": 1865,
      "important": 1866,
      "tur": 1867,
      "haus": 1868,
      "ware": 1869,
      "after": 1870,
      "vel": 1871,
      "because": 1872,
      "may": 1873,
      "ail": 1874,
      "ca": 1875,
      "sport": 1876,
      "hör": 1877,
      "stu": 1878,
      "play": 1879,
      "main": 1880,
      "aut": 1881,
      "os": 1882,
      "high": 1883,
      "cer": 1884,
      "char": 1885,
      "ween": 1886,
      "fact": 1887,
      "between": 1888,
      "wend": 1889,
      "fahr": 1890,
      "group": 1891,
      "heu": 1892,
      "thing": 1893,
      "fest": 1894,
      "line": 1895,
      "lar": 1896,
      "every": 1897,
      "industr": 1898,
      "pra": 1899,
      "ps": 1900,
      "commun": 1901,
      "ights": 1902,
      "tung": 1903,
      "wirk": 1904,
      "energ": 1905,
      "led": 1906,
      "ler": 1907,
      "vent": 1908,
      "ence": 1909,
      "two": 1910,
      "fil": 1911,
      "good": 1912,
      "even": 1913,
      "ss": 1914,
      "versch": 1915,
      "europäische": 1916,
      "wieder": 1917,
      "amer": 1918,
      "service": 1919,
      "press": 1920,
      "vol": 1921,
      "wür": 1922,
      "recht": 1923,
      "ural": 1924,
      "maß": 1925,
      "commit": 1926,
      "vern": 1927,
      "instit": 1928,
      "made": 1929,
      "same": 1930,
      "rough": 1931,
      "nä": 1932,
      "jed": 1933,
      "muss": 1934,
      "lan": 1935,
      "ihrer": 1936,
      "ict": 1937,
      "num": 1938,
      "schla": 1939,
      "enz": 1940,
      "then": 1941,
      "ister": 1942,
      "keine": 1943,
      "reas": 1944,
      "public": 1945,
      "sum": 1946,
      "ziel": 1947,
      "fach": 1948,
      "fur": 1949,
      "europa": 1950,
      "ful": 1951,
      "market": 1952,
      "dat": 1953,
      "site": 1954,
      "schließ": 1955,
      "damit": 1956,
      "ker": 1957,
      "uni": 1958,
      "igung": 1959,
      "cted": 1960,
      "wirtschaft": 1961,
      "rei": 1962,
      "through": 1963,
      "zeu": 1964,
      "zeich": 1965,
      "right": 1966,
      "chin": 1967,
      "hä": 1968,
      "last": 1969,
      "cor": 1970,
      "far": 1971,
      "finden": 1972,
      "bst": 1973,
      "zial": 1974,
      "que": 1975,
      "full": 1976,
      "dann": 1977,
      "those": 1978,
      "wort": 1979,
      "dan": 1980,
      "eben": 1981,
      "ffic": 1982,
      "vir": 1983,
      "ven": 1984,
      "bau": 1985,
      "na": 1986,
      "hö": 1987,
      "ats": 1988,
      "policy": 1989,
      "had": 1990,
      "own": 1991,
      "kle": 1992,
      "text": 1993,
      "nam": 1994,
      "hum": 1995,
      "urs": 1996,
      "val": 1997,
      "sho": 1998,
      "years": 1999,
      "sim": 2000,
      "issu": 2001,
      "effe": 2002,
      "beste": 2003,
      "mitgliedstaaten": 2004,
      "plan": 2005,
      "wohl": 2006,
      "anderen": 2007,
      "zimmer": 2008,
      "clear": 2009,
      "bring": 2010,
      "bel": 2011,
      "ren": 2012,
      "wis": 2013,
      "sc": 2014,
      "del": 2015,
      "verfü": 2016,
      "cond": 2017,
      "itt": 2018,
      "frage": 2019,
      "know": 2020,
      "respon": 2021,
      "find": 2022,
      "tal": 2023,
      "stad": 2024,
      "cept": 2025,
      "bit": 2026,
      "nolog": 2027,
      "gung": 2028,
      "ient": 2029,
      "istr": 2030,
      "conc": 2031,
      "priv": 2032,
      "fund": 2033,
      "hol": 2034,
      "wes": 2035,
      "ives": 2036,
      "strateg": 2037,
      "unternehmen": 2038,
      "ving": 2039,
      "ende": 2040,
      "problem": 2041,
      "ischer": 2042,
      "var": 2043,
      "auto": 2044,
      "being": 2045,
      "differ": 2046,
      "famil": 2047,
      "voll": 2048,
      "allen": 2049,
      "howe": 2050,
      "however": 2051,
      "clo": 2052,
      "groß": 2053,
      "kun": 2054,
      "bed": 2055,
      "aller": 2056,
      "exper": 2057,
      "keiten": 2058,
      "ves": 2059,
      "sprech": 2060,
      "inn": 2061,
      "pri": 2062,
      "organis": 2063,
      "ited": 2064,
      "schr": 2065,
      "brauch": 2066,
      "zentr": 2067,
      "15": 2068,
      "ement": 2069,
      "ick": 2070,
      "selbst": 2071,
      "place": 2072,
      "län": 2073,
      "weil": 2074,
      "199": 2075,
      "rent": 2076,
      "sur": 2077,
      "soft": 2078,
      "technolog": 2079,
      "belie": 2080,
      "prof": 2081,
      "hne": 2082,
      "tee": 2083,
      "att": 2084,
      "govern": 2085,
      "trä": 2086,
      "lö": 2087,
      "bür": 2088,
      "diesen": 2089,
      "alth": 2090,
      "less": 2091,
      "ständ": 2092,
      "cke": 2093,
      "present": 2094,
      "city": 2095,
      "position": 2096,
      "stra": 2097,
      "kol": 2098,
      "free": 2099,
      "stehen": 2100,
      "fahren": 2101,
      "beg": 2102,
      "situation": 2103,
      "particular": 2104,
      "bur": 2105,
      "propos": 2106,
      "economic": 2107,
      "ausge": 2108,
      "human": 2109,
      "wert": 2110,
      "essen": 2111,
      "markt": 2112,
      "bürger": 2113,
      "mill": 2114,
      "nahmen": 2115,
      "ship": 2116,
      "miss": 2117,
      "ument": 2118,
      "aur": 2119,
      "prote": 2120,
      "och": 2121,
      "mich": 2122,
      "area": 2123,
      "flu": 2124,
      "techn": 2125,
      "heute": 2126,
      "fle": 2127,
      "ys": 2128,
      "hau": 2129,
      "ved": 2130,
      "process": 2131,
      "wurden": 2132,
      "development": 2133,
      "isen": 2134,
      "set": 2135,
      "glo": 2136,
      "innen": 2137,
      "seine": 2138,
      "iter": 2139,
      "sm": 2140,
      "dru": 2141,
      "used": 2142,
      "therefore": 2143,
      "rights": 2144,
      "invest": 2145,
      "great": 2146,
      "stre": 2147,
      "unterstütz": 2148,
      "possible": 2149,
      "sign": 2150,
      "mot": 2151,
      "ihren": 2152,
      "ough": 2153,
      "dy": 2154,
      "sure": 2155,
      "bild": 2156,
      "requ": 2157,
      "say": 2158,
      "ters": 2159,
      "seit": 2160,
      "put": 2161,
      "unserer": 2162,
      "spra": 2163,
      "down": 2164,
      "open": 2165,
      "iness": 2166,
      "entlich": 2167,
      "point": 2168,
      "ink": 2169,
      "indi": 2170,
      "ouse": 2171,
      "eigen": 2172,
      "comple": 2173,
      "nt": 2174,
      "spiel": 2175,
      "arch": 2176,
      "verein": 2177,
      "mor": 2178,
      "grö": 2179,
      "design": 2180,
      "30": 2181,
      "lassen": 2182,
      "stadt": 2183,
      "rechts": 2184,
      "chan": 2185,
      "standard": 2186,
      "ium": 2187,
      "tour": 2188,
      "back": 2189,
      "jedoch": 2190,
      "habe": 2191,
      "social": 2192,
      "programm": 2193,
      "spa": 2194,
      "inte": 2195,
      "internet": 2196,
      "leist": 2197,
      "aussch": 2198,
      "neue": 2199,
      "halt": 2200,
      "sehen": 2201,
      "access": 2202,
      "wissen": 2203,
      "services": 2204,
      "zer": 2205,
      "daten": 2206,
      "cas": 2207,
      "entwicklung": 2208,
      "contin": 2209,
      "hist": 2210,
      "business": 2211,
      "ju": 2212,
      "sondern": 2213,
      "18": 2214,
      "000": 2215,
      "bro": 2216,
      "iti": 2217,
      "ates": 2218,
      "mä": 2219,
      "change": 2220,
      "itions": 2221,
      "letz": 2222,
      "wach": 2223,
      "concern": 2224,
      "self": 2225,
      "opt": 2226,
      "gehen": 2227,
      "ganz": 2228,
      "punkt": 2229,
      "pat": 2230,
      "ommen": 2231,
      "ply": 2232,
      "pet": 2233,
      "within": 2234,
      "kur": 2235,
      "führen": 2236,
      "sor": 2237,
      "operation": 2238,
      "folgen": 2239,
      "integr": 2240,
      "both": 2241,
      "plic": 2242,
      "does": 2243,
      "restaur": 2244,
      "ohne": 2245,
      "direct": 2246,
      "level": 2247,
      "har": 2248,
      "political": 2249,
      "could": 2250,
      "schafts": 2251,
      "tens": 2252,
      "mil": 2253,
      "buil": 2254,
      "want": 2255,
      "betr": 2256,
      "aum": 2257,
      "unt": 2258,
      "itä": 2259,
      "gestell": 2260,
      "pal": 2261,
      "number": 2262,
      "handel": 2263,
      "bs": 2264,
      "entsche": 2265,
      "oc": 2266,
      "50": 2267,
      "provide": 2268,
      "manage": 2269,
      "ism": 2270,
      "hil": 2271,
      "bereits": 2272,
      "abl": 2273,
      "sozial": 2274,
      "wichtig": 2275,
      "stellung": 2276,
      "ute": 2277,
      "ris": 2278,
      "let": 2279,
      "appro": 2280,
      "avail": 2281,
      "house": 2282,
      "power": 2283,
      "wal": 2284,
      "esser": 2285,
      "lis": 2286,
      "sollte": 2287,
      "global": 2288,
      "reichen": 2289,
      "lif": 2290,
      "tran": 2291,
      "dra": 2292,
      "vi": 2293,
      "ready": 2294,
      "schutz": 2295,
      "zwei": 2296,
      "exam": 2297,
      "lon": 2298,
      "country": 2299,
      "chten": 2300,
      "much": 2301,
      "enth": 2302,
      "meine": 2303,
      "kre": 2304,
      "rooms": 2305,
      "ep": 2306,
      "inner": 2307,
      "viele": 2308,
      "gang": 2309,
      "mt": 2310,
      "against": 2311,
      "large": 2312,
      "ics": 2313,
      "mu": 2314,
      "key": 2315,
      "today": 2316,
      "dazu": 2317,
      "krat": 2318,
      "still": 2319,
      "llow": 2320,
      "ability": 2321,
      "ants": 2322,
      "macht": 2323,
      "nie": 2324,
      "maßnahmen": 2325,
      "andere": 2326,
      "quality": 2327,
      "kar": 2328,
      "neuen": 2329,
      "loy": 2330,
      "gesam": 2331,
      "gut": 2332,
      "trag": 2333,
      "without": 2334,
      "cust": 2335,
      "vid": 2336,
      "ka": 2337,
      "ätz": 2338,
      "partner": 2339,
      "ban": 2340,
      "cit": 2341,
      "cho": 2342,
      "ierte": 2343,
      "too": 2344,
      "thre": 2345,
      "sollten": 2346,
      "long": 2347,
      "jahren": 2348,
      "utions": 2349,
      "führt": 2350,
      "begr": 2351,
      "schrif": 2352,
      "fut": 2353,
      "denn": 2354,
      "custom": 2355,
      "ffen": 2356,
      "software": 2357,
      "low": 2358,
      "fast": 2359,
      "isp": 2360,
      "kosten": 2361,
      "viron": 2362,
      "environ": 2363,
      "fragen": 2364,
      "lau": 2365,
      "different": 2366,
      "antwort": 2367,
      "kes": 2368,
      "regul": 2369,
      "contro": 2370,
      "hän": 2371,
      "liegt": 2372,
      "ests": 2373,
      "druck": 2374,
      "van": 2375,
      "spec": 2376,
      "machen": 2377,
      "ject": 2378,
      "date": 2379,
      "saf": 2380,
      "sider": 2381,
      "since": 2382,
      "consider": 2383,
      "ierten": 2384,
      "bank": 2385,
      "bestimm": 2386,
      "regard": 2387,
      "denen": 2388,
      "pect": 2389,
      "meas": 2390,
      "tag": 2391,
      "stimm": 2392,
      "wind": 2393,
      "hlen": 2394,
      "state": 2395,
      "anz": 2396,
      "mir": 2397,
      "verschieden": 2398,
      "une": 2399,
      "initi": 2400,
      "acc": 2401,
      "kehr": 2402,
      "turn": 2403,
      "jetzt": 2404,
      "ade": 2405,
      "beisp": 2406,
      "got": 2407,
      "before": 2408,
      "los": 2409,
      "außer": 2410,
      "version": 2411,
      "alen": 2412,
      "satz": 2413,
      "cap": 2414,
      "doch": 2415,
      "falls": 2416,
      "law": 2417,
      "isl": 2418,
      "special": 2419,
      "don": 2420,
      "offen": 2421,
      "pass": 2422,
      "kten": 2423,
      "during": 2424,
      "committee": 2425,
      "environment": 2426,
      "sto": 2427,
      "rahmen": 2428,
      "länder": 2429,
      "bud": 2430,
      "treat": 2431,
      "einige": 2432,
      "zug": 2433,
      "prü": 2434,
      "rechte": 2435,
      "available": 2436,
      "weg": 2437,
      "ask": 2438,
      "auth": 2439,
      "bietet": 2440,
      "äch": 2441,
      "ness": 2442,
      "data": 2443,
      "äf": 2444,
      "regel": 2445,
      "help": 2446,
      "san": 2447,
      "einfach": 2448,
      "zo": 2449,
      "ways": 2450,
      "licher": 2451,
      "ator": 2452,
      "enter": 2453,
      "beit": 2454,
      "current": 2455,
      "amend": 2456,
      "frei": 2457,
      "redu": 2458,
      "ichte": 2459,
      "waren": 2460,
      "kin": 2461,
      "schlag": 2462,
      "require": 2463,
      "finanz": 2464,
      "cus": 2465,
      "bt": 2466,
      "bewer": 2467,
      "schrit": 2468,
      "geht": 2469,
      "erfol": 2470,
      "ists": 2471,
      "course": 2472,
      "certain": 2473,
      "ctions": 2474,
      "setzen": 2475,
      "proz": 2476,
      "11": 2477,
      "besondere": 2478,
      "während": 2479,
      "pur": 2480,
      "ktur": 2481,
      "million": 2482,
      "nun": 2483,
      "alo": 2484,
      "wahl": 2485,
      "öl": 2486,
      "findet": 2487,
      "inde": 2488,
      "employ": 2489,
      "lim": 2490,
      "future": 2491,
      "russ": 2492,
      "genommen": 2493,
      "thank": 2494,
      "schon": 2495,
      "further": 2496,
      "secur": 2497,
      "informationen": 2498,
      "ländern": 2499,
      "lös": 2500,
      "already": 2501,
      "mb": 2502,
      "för": 2503,
      "iß": 2504,
      "products": 2505,
      "schne": 2506,
      "stär": 2507,
      "terr": 2508,
      "dafür": 2509,
      "darauf": 2510,
      "individ": 2511,
      "dig": 2512,
      "believe": 2513,
      "democ": 2514,
      "ession": 2515,
      "lagen": 2516,
      "iet": 2517,
      "ton": 2518,
      "demokrat": 2519,
      "cing": 2520,
      "kün": 2521,
      "seite": 2522,
      "ike": 2523,
      "alten": 2524,
      "beispiel": 2525,
      "question": 2526,
      "decis": 2527,
      "systems": 2528,
      "case": 2529,
      "seiner": 2530,
      "fair": 2531,
      "rich": 2532,
      "think": 2533,
      "ting": 2534,
      "gestellt": 2535,
      "rap": 2536,
      "modern": 2537,
      "jor": 2538,
      "kam": 2539,
      "dienst": 2540,
      "zel": 2541,
      "legal": 2542,
      "sagen": 2543,
      "each": 2544,
      "top": 2545,
      "rag": 2546,
      "ages": 2547,
      "ri": 2548,
      "minister": 2549,
      "klär": 2550,
      "gele": 2551,
      "mater": 2552,
      "small": 2553,
      "linie": 2554,
      "asse": 2555,
      "programme": 2556,
      "grün": 2557,
      "cult": 2558,
      "sprechen": 2559,
      "pers": 2560,
      "sou": 2561,
      "instr": 2562,
      "ica": 2563,
      "chil": 2564,
      "ersten": 2565,
      "suc": 2566,
      "financial": 2567,
      "2009": 2568,
      "government": 2569,
      "sing": 2570,
      "fig": 2571,
      "haf": 2572,
      "ience": 2573,
      "äft": 2574,
      "kunden": 2575,
      "equ": 2576,
      "tun": 2577,
      "omen": 2578,
      "itet": 2579,
      "community": 2580,
      "posit": 2581,
      "institution": 2582,
      "imple": 2583,
      "nisse": 2584,
      "pay": 2585,
      "gesell": 2586,
      "follow": 2587,
      "ically": 2588,
      "nov": 2589,
      "bot": 2590,
      "jah": 2591,
      "grup": 2592,
      "cannot": 2593,
      "ry": 2594,
      "ug": 2595,
      "tele": 2596,
      "while": 2597,
      "offers": 2598,
      "daher": 2599,
      "meet": 2600,
      "nte": 2601,
      "beding": 2602,
      "start": 2603,
      "colle": 2604,
      "lang": 2605,
      "eas": 2606,
      "pp": 2607,
      "defin": 2608,
      "natür": 2609,
      "kauf": 2610,
      "kra": 2611,
      "refer": 2612,
      "stim": 2613,
      "frü": 2614,
      "ron": 2615,
      "security": 2616,
      "14": 2617,
      "citiz": 2618,
      "allow": 2619,
      "agreement": 2620,
      "common": 2621,
      "transport": 2622,
      "ctor": 2623,
      "zurück": 2624,
      "management": 2625,
      "heits": 2626,
      "ationen": 2627,
      "blick": 2628,
      "alter": 2629,
      "16": 2630,
      "gent": 2631,
      "ished": 2632,
      "cken": 2633,
      "action": 2634,
      "ime": 2635,
      "kult": 2636,
      "resol": 2637,
      "arbeiten": 2638,
      "park": 2639,
      "arbeits": 2640,
      "tradition": 2641,
      "ately": 2642,
      "liegen": 2643,
      "uten": 2644,
      "lossen": 2645,
      "sco": 2646,
      "gemeinsam": 2647,
      "funktion": 2648,
      "ix": 2649,
      "fon": 2650,
      "applic": 2651,
      "commissioner": 2652,
      "general": 2653,
      "cost": 2654,
      "neh": 2655,
      "fully": 2656,
      "bon": 2657,
      "ismus": 2658,
      "centr": 2659,
      "members": 2660,
      "reason": 2661,
      "second": 2662,
      "dabei": 2663,
      "dom": 2664,
      "major": 2665,
      "statt": 2666,
      "show": 2667,
      "call": 2668,
      "kommiss": 2669,
      "company": 2670,
      "personal": 2671,
      "hoch": 2672,
      "klein": 2673,
      "imin": 2674,
      "nahme": 2675,
      "sicherheit": 2676,
      "based": 2677,
      "dio": 2678,
      "necess": 2679,
      "struct": 2680,
      "author": 2681,
      "ually": 2682,
      "issue": 2683,
      "herrn": 2684,
      "page": 2685,
      "hof": 2686,
      "bezie": 2687,
      "mäß": 2688,
      "bereit": 2689,
      "sal": 2690,
      "vention": 2691,
      "124": 2692,
      "würde": 2693,
      "jahre": 2694,
      "hig": 2695,
      "energy": 2696,
      "som": 2697,
      "stay": 2698,
      "cell": 2699,
      "name": 2700,
      "span": 2701,
      "ward": 2702,
      "exp": 2703,
      "pack": 2704,
      "ec": 2705,
      "ily": 2706,
      "eig": 2707,
      "activ": 2708,
      "life": 2709,
      "ls": 2710,
      "ichter": 2711,
      "train": 2712,
      "said": 2713,
      "größ": 2714,
      "verkehr": 2715,
      "13": 2716,
      "allem": 2717,
      "wollen": 2718,
      "achie": 2719,
      "kommissar": 2720,
      "gn": 2721,
      "setzung": 2722,
      "oking": 2723,
      "website": 2724,
      "debate": 2725,
      "count": 2726,
      "heiten": 2727,
      "pop": 2728,
      "reform": 2729,
      "stellt": 2730,
      "ordnung": 2731,
      "seiten": 2732,
      "means": 2733,
      "erst": 2734,
      "next": 2735,
      "proposal": 2736,
      "look": 2737,
      "example": 2738,
      "steht": 2739,
      "health": 2740,
      "histor": 2741,
      "why": 2742,
      "compet": 2743,
      "ktor": 2744,
      "including": 2745,
      "beach": 2746,
      "anal": 2747,
      "iff": 2748,
      "isierung": 2749,
      "conta": 2750,
      "basis": 2751,
      "darüber": 2752,
      "umf": 2753,
      "ged": 2754,
      "worden": 2755,
      "unseren": 2756,
      "prior": 2757,
      "apart": 2758,
      "17": 2759,
      "cro": 2760,
      "three": 2761,
      "beim": 2762,
      "bah": 2763,
      "agen": 2764,
      "ont": 2765,
      "home": 2766,
      "cal": 2767,
      "trib": 2768,
      "deshalb": 2769,
      "glau": 2770,
      "haupt": 2771,
      "ised": 2772,
      "centre": 2773,
      "raum": 2774,
      "verfahren": 2775,
      "found": 2776,
      "budget": 2777,
      "insbesondere": 2778,
      "whe": 2779,
      "innov": 2780,
      "einzel": 2781,
      "elle": 2782,
      "umwelt": 2783,
      "äm": 2784,
      "mail": 2785,
      "agr": 2786,
      "taken": 2787,
      "she": 2788,
      "team": 2789,
      "schein": 2790,
      "addition": 2791,
      "result": 2792,
      "werk": 2793,
      "mut": 2794,
      "abil": 2795,
      "ders": 2796,
      "wed": 2797,
      "25": 2798,
      "online": 2799,
      "kontro": 2800,
      "located": 2801,
      "deta": 2802,
      "post": 2803,
      "etwas": 2804,
      "problems": 2805,
      "parlaments": 2806,
      "vide": 2807,
      "hotels": 2808,
      "24": 2809,
      "gend": 2810,
      "utes": 2811,
      "mod": 2812,
      "abge": 2813,
      "bringen": 2814,
      "specific": 2815,
      "give": 2816,
      "cover": 2817,
      "rece": 2818,
      "success": 2819,
      "lauf": 2820,
      "ausschuss": 2821,
      "vorschlag": 2822,
      "fri": 2823,
      "verantwort": 2824,
      "install": 2825,
      "ized": 2826,
      "legisl": 2827,
      "grow": 2828,
      "citizens": 2829,
      "aro": 2830,
      "hält": 2831,
      "führung": 2832,
      "did": 2833,
      "mult": 2834,
      "areas": 2835,
      "tar": 2836,
      "ordin": 2837,
      "immt": 2838,
      "erhalten": 2839,
      "kü": 2840,
      "measures": 2841,
      "kunft": 2842,
      "pflich": 2843,
      "ield": 2844,
      "notwend": 2845,
      "fehl": 2846,
      "restaurant": 2847,
      "ace": 2848,
      "gesetz": 2849,
      "given": 2850,
      "few": 2851,
      "ird": 2852,
      "staat": 2853,
      "änderungs": 2854,
      "gehör": 2855,
      "establ": 2856,
      "jen": 2857,
      "drei": 2858,
      "ek": 2859,
      "water": 2860,
      "ning": 2861,
      "sour": 2862,
      "bieten": 2863,
      "rele": 2864,
      "ller": 2865,
      "lungs": 2866,
      "range": 2867,
      "orig": 2868,
      "mone": 2869,
      "old": 2870,
      "break": 2871,
      "welche": 2872,
      "einmal": 2873,
      "again": 2874,
      "non": 2875,
      "produkt": 2876,
      "friend": 2877,
      "2010": 2878,
      "princ": 2879,
      "protection": 2880,
      "close": 2881,
      "vill": 2882,
      "gangen": 2883,
      "ght": 2884,
      "elt": 2885,
      "ues": 2886,
      "entwicke": 2887,
      "appe": 2888,
      "rates": 2889,
      "necessary": 2890,
      "preis": 2891,
      "using": 2892,
      "km": 2893,
      "mand": 2894,
      "ible": 2895,
      "zusammenarbeit": 2896,
      "joy": 2897,
      "halts": 2898,
      "conne": 2899,
      "earch": 2900,
      "verwen": 2901,
      "namen": 2902,
      "posed": 2903,
      "research": 2904,
      "lead": 2905,
      "fung": 2906,
      "reser": 2907,
      "tes": 2908,
      "natürlich": 2909,
      "wahr": 2910,
      "platz": 2911,
      "gere": 2912,
      "schaften": 2913,
      "üs": 2914,
      "schul": 2915,
      "steu": 2916,
      "trade": 2917,
      "ensure": 2918,
      "genau": 2919,
      "meth": 2920,
      "const": 2921,
      "hung": 2922,
      "sprache": 2923,
      "schlä": 2924,
      "fass": 2925,
      "wasser": 2926,
      "letzten": 2927,
      "liber": 2928,
      "esen": 2929,
      "pract": 2930,
      "ential": 2931,
      "klar": 2932,
      "schließlich": 2933,
      "cooperation": 2934,
      "sions": 2935,
      "merk": 2936,
      "tragen": 2937,
      "zü": 2938,
      "wirklich": 2939,
      "läs": 2940,
      "opport": 2941,
      "erklär": 2942,
      "jeder": 2943,
      "ihrem": 2944,
      "mobil": 2945,
      "implement": 2946,
      "unterstützung": 2947,
      "vier": 2948,
      "tage": 2949,
      "struktur": 2950,
      "increas": 2951,
      "test": 2952,
      "gesetzt": 2953,
      "hope": 2954,
      "bekann": 2955,
      "distr": 2956,
      "him": 2957,
      "ches": 2958,
      "ina": 2959,
      "care": 2960,
      "geschäf": 2961,
      "opportun": 2962,
      "china": 2963,
      "esse": 2964,
      "met": 2965,
      "tats": 2966,
      "bede": 2967,
      "book": 2968,
      "glichen": 2969,
      "fraktion": 2970,
      "entfer": 2971,
      "aktiv": 2972,
      "pho": 2973,
      "bra": 2974,
      "visit": 2975,
      "sequ": 2976,
      "porte": 2977,
      "utzen": 2978,
      "ente": 2979,
      "cks": 2980,
      "vote": 2981,
      "half": 2982,
      "aff": 2983,
      "alled": 2984,
      "wand": 2985,
      "consum": 2986,
      "bitte": 2987,
      "complete": 2988,
      "lei": 2989,
      "treten": 2990,
      "entscheid": 2991,
      "lebens": 2992,
      "another": 2993,
      "meiner": 2994,
      "mas": 2995,
      "shall": 2996,
      "accord": 2997,
      "sitz": 2998,
      "eur": 2999,
      "energie": 3000,
      "afr": 3001,
      "wish": 3002,
      "united": 3003,
      "2008": 3004,
      "ww": 3005,
      "stimmung": 3006,
      "working": 3007,
      "prä": 3008,
      "ache": 3009,
      "please": 3010,
      "origin": 3011,
      "richtung": 3012,
      "lea": 3013,
      "super": 3014,
      "ules": 3015,
      "darf": 3016,
      "pend": 3017,
      "reach": 3018,
      "tax": 3019,
      "cially": 3020,
      "leicht": 3021,
      "regierung": 3022,
      "agt": 3023,
      "yo": 3024,
      "untersch": 3025,
      "ira": 3026,
      "burg": 3027,
      "lungen": 3028,
      "lat": 3029,
      "compan": 3030,
      "wett": 3031,
      "100": 3032,
      "fert": 3033,
      "invol": 3034,
      "graph": 3035,
      "gabe": 3036,
      "gä": 3037,
      "cher": 3038,
      "sätz": 3039,
      "bahn": 3040,
      "wards": 3041,
      "entlichen": 3042,
      "politischen": 3043,
      "town": 3044,
      "ped": 3045,
      "nutz": 3046,
      "besteht": 3047,
      "control": 3048,
      "whether": 3049,
      "run": 3050,
      "enjoy": 3051,
      "zept": 3052,
      "production": 3053,
      "pot": 3054,
      "always": 3055,
      "dings": 3056,
      "disk": 3057,
      "gesellschaft": 3058,
      "col": 3059,
      "mark": 3060,
      "move": 3061,
      "iety": 3062,
      "toge": 3063,
      "bedeut": 3064,
      "together": 3065,
      "hard": 3066,
      "igten": 3067,
      "isation": 3068,
      "wegen": 3069,
      "poin": 3070,
      "sever": 3071,
      "views": 3072,
      "streng": 3073,
      "wirtschafts": 3074,
      "ified": 3075,
      "forsch": 3076,
      "einz": 3077,
      "termin": 3078,
      "alles": 3079,
      "extre": 3080,
      "deutsch": 3081,
      "dist": 3082,
      "field": 3083,
      "private": 3084,
      "lands": 3085,
      "sele": 3086,
      "hy": 3087,
      "brit": 3088,
      "list": 3089,
      "ared": 3090,
      "weitere": 3091,
      "better": 3092,
      "directive": 3093,
      "großen": 3094,
      "fas": 3095,
      "head": 3096,
      "typ": 3097,
      "needs": 3098,
      "terms": 3099,
      "seinen": 3100,
      "itäten": 3101,
      "sibility": 3102,
      "wäre": 3103,
      "usa": 3104,
      "flex": 3105,
      "ert": 3106,
      "cu": 3107,
      "förder": 3108,
      "wide": 3109,
      "vielen": 3110,
      "interest": 3111,
      "wendung": 3112,
      "dren": 3113,
      "central": 3114,
      "third": 3115,
      "wohn": 3116,
      "account": 3117,
      "jan": 3118,
      "around": 3119,
      "terror": 3120,
      "parte": 3121,
      "abhän": 3122,
      "deren": 3123,
      "vision": 3124,
      "load": 3125,
      "ergeb": 3126,
      "german": 3127,
      "äum": 3128,
      "kollegen": 3129,
      "profession": 3130,
      "near": 3131,
      "facil": 3132,
      "obje": 3133,
      "angen": 3134,
      "recent": 3135,
      "große": 3136,
      "light": 3137,
      "blo": 3138,
      "flo": 3139,
      "user": 3140,
      "spl": 3141,
      "pan": 3142,
      "children": 3143,
      "kinder": 3144,
      "nal": 3145,
      "handelt": 3146,
      "guar": 3147,
      "perfe": 3148,
      "möglichkeit": 3149,
      "win": 3150,
      "gesund": 3151,
      "short": 3152,
      "ides": 3153,
      "kno": 3154,
      "mel": 3155,
      "word": 3156,
      "sü": 3157,
      "kind": 3158,
      "making": 3159,
      "direkt": 3160,
      "berichter": 3161,
      "writ": 3162,
      "ierungs": 3163,
      "va": 3164,
      "pool": 3165,
      "heraus": 3166,
      "rück": 3167,
      "geführt": 3168,
      "berichterstat": 3169,
      "kor": 3170,
      "clu": 3171,
      "öffentlich": 3172,
      "ätze": 3173,
      "proper": 3174,
      "wettbewer": 3175,
      "transpar": 3176,
      "richtlinie": 3177,
      "dialo": 3178,
      "za": 3179,
      "ivil": 3180,
      "card": 3181,
      "berg": 3182,
      "local": 3183,
      "zeigt": 3184,
      "solid": 3185,
      "big": 3186,
      "muß": 3187,
      "women": 3188,
      "food": 3189,
      "industrie": 3190,
      "2007": 3191,
      "doc": 3192,
      "accept": 3193,
      "probleme": 3194,
      "träge": 3195,
      "ums": 3196,
      "kommt": 3197,
      "hu": 3198,
      "feat": 3199,
      "dort": 3200,
      "conditions": 3201,
      "edu": 3202,
      "schwi": 3203,
      "lux": 3204,
      "besonders": 3205,
      "natur": 3206,
      "öt": 3207,
      "milit": 3208,
      "org": 3209,
      "verfügung": 3210,
      "photo": 3211,
      "prove": 3212,
      "dou": 3213,
      "class": 3214,
      "industry": 3215,
      "automat": 3216,
      "compu": 3217,
      "proced": 3218,
      "location": 3219,
      "bedingungen": 3220,
      "40": 3221,
      "betrie": 3222,
      "particularly": 3223,
      "kein": 3224,
      "benutz": 3225,
      "hungen": 3226,
      "mlich": 3227,
      "live": 3228,
      "internationalen": 3229,
      "ury": 3230,
      "enten": 3231,
      "once": 3232,
      "ii": 3233,
      "exist": 3234,
      "völ": 3235,
      "lack": 3236,
      "beschäft": 3237,
      "bedeutung": 3238,
      "station": 3239,
      "face": 3240,
      "equip": 3241,
      "staff": 3242,
      "prozess": 3243,
      "leistungen": 3244,
      "ming": 3245,
      "verbind": 3246,
      "going": 3247,
      "nehmer": 3248,
      "reco": 3249,
      "hang": 3250,
      "2000": 3251,
      "experience": 3252,
      "ention": 3253,
      "suchen": 3254,
      "aspe": 3255,
      "sowohl": 3256,
      "abhäng": 3257,
      "betre": 3258,
      "become": 3259,
      "mrs": 3260,
      "frame": 3261,
      "rolle": 3262,
      "uments": 3263,
      "rapporte": 3264,
      "diffic": 3265,
      "verbrauch": 3266,
      "davon": 3267,
      "espe": 3268,
      "option": 3269,
      "vertr": 3270,
      "buch": 3271,
      "käm": 3272,
      "thema": 3273,
      "west": 3274,
      "hervor": 3275,
      "ikan": 3276,
      "difficult": 3277,
      "material": 3278,
      "respect": 3279,
      "clus": 3280,
      "beginn": 3281,
      "job": 3282,
      "mass": 3283,
      "näch": 3284,
      "issues": 3285,
      "standards": 3286,
      "anzu": 3287,
      "ths": 3288,
      "rats": 3289,
      "board": 3290,
      "single": 3291,
      "abkommen": 3292,
      "tool": 3293,
      "soc": 3294,
      "communic": 3295,
      "event": 3296,
      "gue": 3297,
      "ying": 3298,
      "gas": 3299,
      "erken": 3300,
      "ikel": 3301,
      "haushalts": 3302,
      "role": 3303,
      "wär": 3304,
      "contrib": 3305,
      "via": 3306,
      "iben": 3307,
      "xim": 3308,
      "product": 3309,
      "fern": 3310,
      "lösung": 3311,
      "meer": 3312,
      "app": 3313,
      "project": 3314,
      "rules": 3315,
      "decision": 3316,
      "gemeinschaft": 3317,
      "whole": 3318,
      "mode": 3319,
      "personen": 3320,
      "vious": 3321,
      "langu": 3322,
      "gegenüber": 3323,
      "comfort": 3324,
      "window": 3325,
      "represent": 3326,
      "dessen": 3327,
      "companies": 3328,
      "erreichen": 3329,
      "score": 3330,
      "various": 3331,
      "weis": 3332,
      "bü": 3333,
      "deal": 3334,
      "road": 3335,
      "hilfe": 3336,
      "lik": 3337,
      "coming": 3338,
      "aid": 3339,
      "among": 3340,
      "ße": 3341,
      "ulation": 3342,
      "60": 3343,
      "erforder": 3344,
      "optim": 3345,
      "especially": 3346,
      "pas": 3347,
      "antrag": 3348,
      "dank": 3349,
      "resolution": 3350,
      "frauen": 3351,
      "vour": 3352,
      "weisen": 3353,
      "office": 3354,
      "eh": 3355,
      "völker": 3356,
      "sector": 3357,
      "welcome": 3358,
      "fel": 3359,
      "ground": 3360,
      "guaran": 3361,
      "network": 3362,
      "benef": 3363,
      "mind": 3364,
      "contra": 3365,
      "aim": 3366,
      "mom": 3367,
      "schwe": 3368,
      "greif": 3369,
      "nten": 3370,
      "geschäfts": 3371,
      "east": 3372,
      "aktion": 3373,
      "gol": 3374,
      "cris": 3375,
      "asso": 3376,
      "eigenen": 3377,
      "innerhalb": 3378,
      "heim": 3379,
      "ategor": 3380,
      "verbesser": 3381,
      "nu": 3382,
      "sea": 3383,
      "schluss": 3384,
      "lot": 3385,
      "wün": 3386,
      "gewähr": 3387,
      "add": 3388,
      "ipt": 3389,
      "befindet": 3390,
      "frieden": 3391,
      "check": 3392,
      "zwar": 3393,
      "family": 3394,
      "create": 3395,
      "ähr": 3396,
      "really": 3397,
      "ils": 3398,
      "abo": 3399,
      "forderungen": 3400,
      "following": 3401,
      "verständ": 3402,
      "effective": 3403,
      "matter": 3404,
      "artikel": 3405,
      "ino": 3406,
      "yet": 3407,
      "unge": 3408,
      "könnte": 3409,
      "called": 3410,
      "technology": 3411,
      "chr": 3412,
      "selves": 3413,
      "dress": 3414,
      "comes": 3415,
      "engl": 3416,
      "80": 3417,
      "hinter": 3418,
      "elect": 3419,
      "oren": 3420,
      "pose": 3421,
      "front": 3422,
      "lab": 3423,
      "mess": 3424,
      "several": 3425,
      "kultur": 3426,
      "employment": 3427,
      "isches": 3428,
      "ief": 3429,
      "kets": 3430,
      "gelegen": 3431,
      "peri": 3432,
      "taking": 3433,
      "projekt": 3434,
      "muse": 3435,
      "erwar": 3436,
      "done": 3437,
      "sat": 3438,
      "anges": 3439,
      "itz": 3440,
      "hatte": 3441,
      "excell": 3442,
      "fäh": 3443,
      "iday": 3444,
      "ika": 3445,
      "teilen": 3446,
      "hold": 3447,
      "gesehen": 3448,
      "iges": 3449,
      "steuer": 3450,
      "demand": 3451,
      "ingen": 3452,
      "center": 3453,
      "zukunft": 3454,
      "ican": 3455,
      "schrift": 3456,
      "fisch": 3457,
      "lines": 3458,
      "excellent": 3459,
      "unterstützen": 3460,
      "produkte": 3461,
      "initiative": 3462,
      "netz": 3463,
      "peace": 3464,
      "hunder": 3465,
      "ham": 3466,
      "period": 3467,
      "goti": 3468,
      "sett": 3469,
      "klim": 3470,
      "subject": 3471,
      "möchten": 3472,
      "express": 3473,
      "advan": 3474,
      "möglichkeiten": 3475,
      "ably": 3476,
      "admin": 3477,
      "tür": 3478,
      "urch": 3479,
      "treaty": 3480,
      "erste": 3481,
      "due": 3482,
      "geschlossen": 3483,
      "enzen": 3484,
      "mär": 3485,
      "igr": 3486,
      "neten": 3487,
      "unde": 3488,
      "entfernt": 3489,
      "schriften": 3490,
      "never": 3491,
      "teile": 3492,
      "verschiedenen": 3493,
      "prin": 3494,
      "zeug": 3495,
      "feel": 3496,
      "negoti": 3497,
      "atte": 3498,
      "besser": 3499,
      "sty": 3500,
      "hor": 3501,
      "mann": 3502,
      "improve": 3503,
      "itor": 3504,
      "four": 3505,
      "gentle": 3506,
      "scho": 3507,
      "gaben": 3508,
      "cation": 3509,
      "resour": 3510,
      "einzu": 3511,
      "auer": 3512,
      "bill": 3513,
      "underscore": 3514,
      "regional": 3515,
      "bio": 3516,
      "gegeben": 3517,
      "tv": 3518,
      "intro": 3519,
      "qualität": 3520,
      "ization": 3521,
      "cam": 3522,
      "ising": 3523,
      "iple": 3524,
      "ons": 3525,
      "meinen": 3526,
      "2006": 3527,
      "cli": 3528,
      "stück": 3529,
      "genann": 3530,
      "23": 3531,
      "berlin": 3532,
      "dür": 3533,
      "frank": 3534,
      "incre": 3535,
      "behör": 3536,
      "schwer": 3537,
      "days": 3538,
      "def": 3539,
      "favour": 3540,
      "verw": 3541,
      "ety": 3542,
      "attra": 3543,
      "something": 3544,
      "ppen": 3545,
      "ifft": 3546,
      "progress": 3547,
      "äd": 3548,
      "altung": 3549,
      "commen": 3550,
      "germany": 3551,
      "ses": 3552,
      "ival": 3553,
      "approach": 3554,
      "schnell": 3555,
      "beru": 3556,
      "dro": 3557,
      "individual": 3558,
      "neben": 3559,
      "gäste": 3560,
      "introdu": 3561,
      "understand": 3562,
      "verpflich": 3563,
      "ences": 3564,
      "hlt": 3565,
      "freund": 3566,
      "persön": 3567,
      "komple": 3568,
      "term": 3569,
      "side": 3570,
      "anim": 3571,
      "bad": 3572,
      "nutzen": 3573,
      "minutes": 3574,
      "isra": 3575,
      "mag": 3576,
      "rapporteur": 3577,
      "dest": 3578,
      "kraft": 3579,
      "continue": 3580,
      "bour": 3581,
      "ither": 3582,
      "affe": 3583,
      "ckt": 3584,
      "away": 3585,
      "litt": 3586,
      "framework": 3587,
      "price": 3588,
      "cast": 3589,
      "schwier": 3590,
      "vorschlä": 3591,
      "ladies": 3592,
      "breakfast": 3593,
      "ppe": 3594,
      "fficient": 3595,
      "atten": 3596,
      "known": 3597,
      "pleas": 3598,
      "safety": 3599,
      "itself": 3600,
      "ishing": 3601,
      "often": 3602,
      "ideal": 3603,
      "computer": 3604,
      "allerdings": 3605,
      "money": 3606,
      "link": 3607,
      "mechan": 3608,
      "server": 3609,
      "ars": 3610,
      "until": 3611,
      "absch": 3612,
      "schaffen": 3613,
      "berichterstatter": 3614,
      "party": 3615,
      "icult": 3616,
      "spr": 3617,
      "unterschied": 3618,
      "außerdem": 3619,
      "bor": 3620,
      "uhr": 3621,
      "gil": 3622,
      "content": 3623,
      "bildung": 3624,
      "mid": 3625,
      "danken": 3626,
      "schritt": 3627,
      "fassung": 3628,
      "anst": 3629,
      "gentlemen": 3630,
      "discus": 3631,
      "früh": 3632,
      "particip": 3633,
      "according": 3634,
      "opin": 3635,
      "little": 3636,
      "reicht": 3637,
      "fundament": 3638,
      "table": 3639,
      "politische": 3640,
      "haltung": 3641,
      "function": 3642,
      "mention": 3643,
      "grat": 3644,
      "gebiet": 3645,
      "tin": 3646,
      "krie": 3647,
      "organisation": 3648,
      "having": 3649,
      "moment": 3650,
      "etc": 3651,
      "erweiter": 3652,
      "serious": 3653,
      "amendments": 3654,
      "ane": 3655,
      "rela": 3656,
      "least": 3657,
      "address": 3658,
      "ieben": 3659,
      "bestehen": 3660,
      "constit": 3661,
      "ifiz": 3662,
      "kurz": 3663,
      "cat": 3664,
      "teilung": 3665,
      "artic": 3666,
      "einge": 3667,
      "cons": 3668,
      "präsidentin": 3669,
      "crisis": 3670,
      "äußer": 3671,
      "kommun": 3672,
      "mi": 3673,
      "eg": 3674,
      "hes": 3675,
      "integration": 3676,
      "din": 3677,
      "abgeord": 3678,
      "zeitig": 3679,
      "gerade": 3680,
      "lichkeit": 3681,
      "things": 3682,
      "strong": 3683,
      "ling": 3684,
      "ath": 3685,
      "towards": 3686,
      "cop": 3687,
      "agricult": 3688,
      "ama": 3689,
      "zip": 3690,
      "drit": 3691,
      "force": 3692,
      "lies": 3693,
      "customers": 3694,
      "gute": 3695,
      "building": 3696,
      "meinung": 3697,
      "easy": 3698,
      "olog": 3699,
      "eren": 3700,
      "ults": 3701,
      "spie": 3702,
      "ones": 3703,
      "jahres": 3704,
      "tages": 3705,
      "body": 3706,
      "dok": 3707,
      "round": 3708,
      "kat": 3709,
      "hät": 3710,
      "dre": 3711,
      "positive": 3712,
      "mean": 3713,
      "growth": 3714,
      "times": 3715,
      "stimmen": 3716,
      "wan": 3717,
      "pact": 3718,
      "gruppe": 3719,
      "deli": 3720,
      "stän": 3721,
      "keep": 3722,
      "institutions": 3723,
      "moder": 3724,
      "rather": 3725,
      "vert": 3726,
      "night": 3727,
      "instrument": 3728,
      "ring": 3729,
      "forward": 3730,
      "promis": 3731,
      "madam": 3732,
      "video": 3733,
      "quite": 3734,
      "although": 3735,
      "bezug": 3736,
      "geld": 3737,
      "ements": 3738,
      "ever": 3739,
      "uring": 3740,
      "anti": 3741,
      "gü": 3742,
      "music": 3743,
      "film": 3744,
      "row": 3745,
      "schö": 3746,
      "constru": 3747,
      "cript": 3748,
      "amo": 3749,
      "igkeiten": 3750,
      "stop": 3751,
      "zun": 3752,
      "sult": 3753,
      "zusammenhang": 3754,
      "ago": 3755,
      "sichtlich": 3756,
      "laden": 3757,
      "flug": 3758,
      "iving": 3759,
      "unehmen": 3760,
      "unserem": 3761,
      "jeden": 3762,
      "strategie": 3763,
      "ober": 3764,
      "left": 3765,
      "verhand": 3766,
      "rec": 3767,
      "agree": 3768,
      "ances": 3769,
      "zweiten": 3770,
      "gelegt": 3771,
      "entschließ": 3772,
      "stain": 3773,
      "jähr": 3774,
      "iere": 3775,
      "presiden": 3776,
      "distrib": 3777,
      "beiden": 3778,
      "sep": 3779,
      "kan": 3780,
      "value": 3781,
      "21": 3782,
      "auen": 3783,
      "beaut": 3784,
      "indem": 3785,
      "strategy": 3786,
      "confer": 3787,
      "begrü": 3788,
      "stabil": 3789,
      "außen": 3790,
      "ragen": 3791,
      "austr": 3792,
      "week": 3793,
      "gesagt": 3794,
      "active": 3795,
      "zusätz": 3796,
      "einander": 3797,
      "manu": 3798,
      "dit": 3799,
      "along": 3800,
      "holiday": 3801,
      "clim": 3802,
      "flü": 3803,
      "univers": 3804,
      "alternat": 3805,
      "daran": 3806,
      "training": 3807,
      "vertrag": 3808,
      "contact": 3809,
      "etwa": 3810,
      "iken": 3811,
      "activities": 3812,
      "ials": 3813,
      "mosp": 3814,
      "hinaus": 3815,
      "istic": 3816,
      "cen": 3817,
      "increase": 3818,
      "digital": 3819,
      "opportunity": 3820,
      "extreme": 3821,
      "2005": 3822,
      "ples": 3823,
      "archite": 3824,
      "safe": 3825,
      "harmon": 3826,
      "mp": 3827,
      "cir": 3828,
      "gemeinsamen": 3829,
      "resources": 3830,
      "ativ": 3831,
      "ification": 3832,
      "weniger": 3833,
      "zogen": 3834,
      "ived": 3835,
      "vorschriften": 3836,
      "sicherheits": 3837,
      "beautif": 3838,
      "aufgrund": 3839,
      "ians": 3840,
      "achieve": 3841,
      "education": 3842,
      "freed": 3843,
      "halte": 3844,
      "stor": 3845,
      "atmosp": 3846,
      "above": 3847,
      "windows": 3848,
      "affen": 3849,
      "bzw": 3850,
      "points": 3851,
      "code": 3852,
      "seem": 3853,
      "baren": 3854,
      "zentrum": 3855,
      "erfahr": 3856,
      "solution": 3857,
      "provided": 3858,
      "folge": 3859,
      "gef": 3860,
      "22": 3861,
      "stelle": 3862,
      "sound": 3863,
      "speak": 3864,
      "south": 3865,
      "wit": 3866,
      "regulation": 3867,
      "entscheiden": 3868,
      "musik": 3869,
      "ütz": 3870,
      "interess": 3871,
      "extra": 3872,
      "bi": 3873,
      "sweise": 3874,
      "presidency": 3875,
      "christ": 3876,
      "came": 3877,
      "associ": 3878,
      "might": 3879,
      "mic": 3880,
      "acht": 3881,
      "request": 3882,
      "foto": 3883,
      "fs": 3884,
      "bew": 3885,
      "troffen": 3886,
      "moun": 3887,
      "israel": 3888,
      "sogar": 3889,
      "foreign": 3890,
      "fähr": 3891,
      "border": 3892,
      "atives": 3893,
      "öffentlichen": 3894,
      "links": 3895,
      "lear": 3896,
      "ebenfalls": 3897,
      "airport": 3898,
      "idence": 3899,
      "prochen": 3900,
      "ierungen": 3901,
      "aufge": 3902,
      "gilt": 3903,
      "denken": 3904,
      "band": 3905,
      "democrat": 3906,
      "proto": 3907,
      "subst": 3908,
      "septem": 3909,
      "entwicklungs": 3910,
      "download": 3911,
      "betra": 3912,
      "uellen": 3913,
      "jap": 3914,
      "ball": 3915,
      "chem": 3916,
      "europas": 3917,
      "70": 3918,
      "freedom": 3919,
      "bare": 3920,
      "offic": 3921,
      "messen": 3922,
      "finally": 3923,
      "verl": 3924,
      "ently": 3925,
      "september": 3926,
      "sil": 3927,
      "ski": 3928,
      "itäts": 3929,
      "icken": 3930,
      "beteil": 3931,
      "pub": 3932,
      "society": 3933,
      "signific": 3934,
      "oft": 3935,
      "hon": 3936,
      "fis": 3937,
      "space": 3938,
      "ises": 3939,
      "model": 3940,
      "wachst": 3941,
      "recommen": 3942,
      "step": 3943,
      "eded": 3944,
      "zugang": 3945,
      "gam": 3946,
      "konfer": 3947,
      "include": 3948,
      "application": 3949,
      "viol": 3950,
      "arr": 3951,
      "krise": 3952,
      "gesamt": 3953,
      "solidar": 3954,
      "clean": 3955,
      "derzeit": 3956,
      "iding": 3957,
      "respe": 3958,
      "mitt": 3959,
      "relation": 3960,
      "nichts": 3961,
      "2004": 3962,
      "ativen": 3963,
      "return": 3964,
      "garant": 3965,
      "darin": 3966,
      "nämlich": 3967,
      "allge": 3968,
      "assist": 3969,
      "bekannt": 3970,
      "words": 3971,
      "leisten": 3972,
      "total": 3973,
      "anderer": 3974,
      "ti": 3975,
      "economy": 3976,
      "ßt": 3977,
      "millionen": 3978,
      "spir": 3979,
      "ln": 3980,
      "proposals": 3981,
      "vertre": 3982,
      "gemacht": 3983,
      "news": 3984,
      "rein": 3985,
      "abstimmung": 3986,
      "sec": 3987,
      "sites": 3988,
      "ichten": 3989,
      "ception": 3990,
      "adop": 3991,
      "happen": 3992,
      "young": 3993,
      "zeigen": 3994,
      "las": 3995,
      "meeting": 3996,
      "paris": 3997,
      "natural": 3998,
      "partn": 3999,
      "cra": 4000,
      "hnt": 4001,
      "deutschland": 4002,
      "exten": 4003,
      "berück": 4004,
      "ebene": 4005,
      "berücksicht": 4006,
      "kal": 4007,
      "grundlage": 4008,
      "reise": 4009,
      "weiß": 4010,
      "liefer": 4011,
      "ffiz": 4012,
      "thus": 4013,
      "tät": 4014,
      "tober": 4015,
      "hnen": 4016,
      "appropri": 4017,
      "accom": 4018,
      "pie": 4019,
      "fundamental": 4020,
      "ras": 4021,
      "perfect": 4022,
      "ihm": 4023,
      "trotz": 4024,
      "rate": 4025,
      "vielleicht": 4026,
      "betrifft": 4027,
      "gebra": 4028,
      "simply": 4029,
      "schre": 4030,
      "kap": 4031,
      "costs": 4032,
      "ächlich": 4033,
      "enden": 4034,
      "green": 4035,
      "others": 4036,
      "heart": 4037,
      "ihn": 4038,
      "remain": 4039,
      "meisten": 4040,
      "media": 4041,
      "cient": 4042,
      "facilities": 4043,
      "vice": 4044,
      "verbunden": 4045,
      "beautiful": 4046,
      "zä": 4047,
      "charac": 4048,
      "japan": 4049,
      "guests": 4050,
      "weiterhin": 4051,
      "tic": 4052,
      "ented": 4053,
      "cla": 4054,
      "änderungen": 4055,
      "zeichnet": 4056,
      "groups": 4057,
      "object": 4058,
      "ussel": 4059,
      "amendment": 4060,
      "ric": 4061,
      "projects": 4062,
      "makes": 4063,
      "zif": 4064,
      "inten": 4065,
      "gebie": 4066,
      "adopted": 4067,
      "italien": 4068,
      "relax": 4069,
      "janu": 4070,
      "questions": 4071,
      "vergangen": 4072,
      "later": 4073,
      "entire": 4074,
      "continu": 4075,
      "konta": 4076,
      "ehr": 4077,
      "unterstützt": 4078,
      "opinion": 4079,
      "hab": 4080,
      "bung": 4081,
      "environmental": 4082,
      "bath": 4083,
      "klima": 4084,
      "frist": 4085,
      "seinem": 4086,
      "legislation": 4087,
      "ziele": 4088,
      "brauchen": 4089,
      "school": 4090,
      "istan": 4091,
      "cultural": 4092,
      "nationalen": 4093,
      "ständig": 4094,
      "erhö": 4095,
      "ify": 4096,
      "results": 4097,
      "responsibility": 4098,
      "nel": 4099,
      "passen": 4100,
      "198": 4101,
      "bevölker": 4102,
      "läss": 4103,
      "attention": 4104,
      "transfer": 4105,
      "arbeitet": 4106,
      "aussprache": 4107,
      "erfü": 4108,
      "2003": 4109,
      "verbraucher": 4110,
      "utet": 4111,
      "tu": 4112,
      "llt": 4113,
      "provides": 4114,
      "hoste": 4115,
      "zunehmen": 4116,
      "share": 4117,
      "quar": 4118,
      "behalf": 4119,
      "glaube": 4120,
      "internal": 4121,
      "capital": 4122,
      "guide": 4123,
      "erwä": 4124,
      "note": 4125,
      "nove": 4126,
      "vot": 4127,
      "fün": 4128,
      "tor": 4129,
      "schön": 4130,
      "minuten": 4131,
      "events": 4132,
      "leit": 4133,
      "technical": 4134,
      "nete": 4135,
      "atur": 4136,
      "wider": 4137,
      "civil": 4138,
      "wiesen": 4139,
      "tex": 4140,
      "unabhäng": 4141,
      "deutlich": 4142,
      "ebenso": 4143,
      "liberal": 4144,
      "sei": 4145,
      "restaurants": 4146,
      "mitteln": 4147,
      "voraus": 4148,
      "künft": 4149,
      "looking": 4150,
      "ichts": 4151,
      "send": 4152,
      "erle": 4153,
      "risk": 4154,
      "einigen": 4155,
      "jahrhunder": 4156,
      "bru": 4157,
      "lange": 4158,
      "una": 4159,
      "solche": 4160,
      "kir": 4161,
      "gleichzeitig": 4162,
      "formen": 4163,
      "bekäm": 4164,
      "normal": 4165,
      "clearly": 4166,
      "file": 4167,
      "challen": 4168,
      "ledge": 4169,
      "bat": 4170,
      "perfor": 4171,
      "original": 4172,
      "verkehrs": 4173,
      "eth": 4174,
      "effect": 4175,
      "solutions": 4176,
      "drück": 4177,
      "kop": 4178,
      "schritte": 4179,
      "concerned": 4180,
      "sektor": 4181,
      "structure": 4182,
      "besuch": 4183,
      "history": 4184,
      "dor": 4185,
      "dürfen": 4186,
      "greater": 4187,
      "suit": 4188,
      "gebung": 4189,
      "kunst": 4190,
      "möglichen": 4191,
      "nature": 4192,
      "geschichte": 4193,
      "relig": 4194,
      "policies": 4195,
      "court": 4196,
      "dim": 4197,
      "commer": 4198,
      "len": 4199,
      "zy": 4200,
      "apr": 4201,
      "ret": 4202,
      "slo": 4203,
      "fonds": 4204,
      "insel": 4205,
      "neuer": 4206,
      "guest": 4207,
      "fordern": 4208,
      "manufact": 4209,
      "sollen": 4210,
      "feld": 4211,
      "ager": 4212,
      "box": 4213,
      "anf": 4214,
      "amb": 4215,
      "effiz": 4216,
      "demon": 4217,
      "quick": 4218,
      "rän": 4219,
      "27": 4220,
      "indeed": 4221,
      "auszu": 4222,
      "proved": 4223,
      "friendly": 4224,
      "vorschläge": 4225,
      "past": 4226,
      "situated": 4227,
      "crit": 4228,
      "linien": 4229,
      "isiert": 4230,
      "language": 4231,
      "isse": 4232,
      "besten": 4233,
      "democra": 4234,
      "wissenschaft": 4235,
      "prakt": 4236,
      "jour": 4237,
      "gruppen": 4238,
      "context": 4239,
      "importance": 4240,
      "offe": 4241,
      "century": 4242,
      "funds": 4243,
      "vertra": 4244,
      "bleiben": 4245,
      "ost": 4246,
      "minim": 4247,
      "liste": 4248,
      "performan": 4249,
      "reiche": 4250,
      "kolleg": 4251,
      "directly": 4252,
      "dige": 4253,
      "elekt": 4254,
      "fünf": 4255,
      "enterpr": 4256,
      "ov": 4257,
      "draw": 4258,
      "currently": 4259,
      "answer": 4260,
      "maxim": 4261,
      "liches": 4262,
      "firm": 4263,
      "ichtet": 4264,
      "analy": 4265,
      "prim": 4266,
      "voted": 4267,
      "gestimmt": 4268,
      "provis": 4269,
      "increasing": 4270,
      "lling": 4271,
      "änderungsan": 4272,
      "wenig": 4273,
      "keinen": 4274,
      "booking": 4275,
      "konferenz": 4276,
      "kür": 4277,
      "höch": 4278,
      "ergebnis": 4279,
      "though": 4280,
      "nähe": 4281,
      "conf": 4282,
      "micro": 4283,
      "crimin": 4284,
      "handels": 4285,
      "pages": 4286,
      "angebot": 4287,
      "bemü": 4288,
      "iver": 4289,
      "2001": 4290,
      "ize": 4291,
      "entsch": 4292,
      "changes": 4293,
      "conference": 4294,
      "bevor": 4295,
      "try": 4296,
      "cut": 4297,
      "spä": 4298,
      "rund": 4299,
      "outs": 4300,
      "zehn": 4301,
      "clar": 4302,
      "umfassen": 4303,
      "ku": 4304,
      "sustain": 4305,
      "infra": 4306,
      "forts": 4307,
      "igungs": 4308,
      "prec": 4309,
      "wärt": 4310,
      "nice": 4311,
      "wech": 4312,
      "luft": 4313,
      "decide": 4314,
      "mitted": 4315,
      "procedure": 4316,
      "iled": 4317,
      "fähigkeit": 4318,
      "emis": 4319,
      "fan": 4320,
      "wichtige": 4321,
      "focus": 4322,
      "yes": 4323,
      "systeme": 4324,
      "responsible": 4325,
      "entliche": 4326,
      "setzt": 4327,
      "mitarbeit": 4328,
      "principle": 4329,
      "tru": 4330,
      "worten": 4331,
      "krit": 4332,
      "contain": 4333,
      "ächst": 4334,
      "ain": 4335,
      "zunächst": 4336,
      "wettbewerbs": 4337,
      "demonstr": 4338,
      "professional": 4339,
      "werde": 4340,
      "ziehen": 4341,
      "ported": 4342,
      "ench": 4343,
      "ior": 4344,
      "required": 4345,
      "sug": 4346,
      "status": 4347,
      "aug": 4348,
      "ada": 4349,
      "laub": 4350,
      "ausschusses": 4351,
      "benöt": 4352,
      "ana": 4353,
      "zustellen": 4354,
      "freu": 4355,
      "mitglieder": 4356,
      "lig": 4357,
      "significant": 4358,
      "gern": 4359,
      "tary": 4360,
      "obwohl": 4361,
      "geschlagen": 4362,
      "dienstleistungen": 4363,
      "wat": 4364,
      "sive": 4365,
      "amerikan": 4366,
      "ination": 4367,
      "pict": 4368,
      "süd": 4369,
      "bedeutet": 4370,
      "empf": 4371,
      "mber": 4372,
      "greich": 4373,
      "vereinbar": 4374,
      "gal": 4375,
      "hib": 4376,
      "essential": 4377,
      "aging": 4378,
      "gratul": 4379,
      "forschung": 4380,
      "sun": 4381,
      "authorities": 4382,
      "seits": 4383,
      "boten": 4384,
      "stein": 4385,
      "bul": 4386,
      "ging": 4387,
      "nieder": 4388,
      "owed": 4389,
      "carr": 4390,
      "gemeinsame": 4391,
      "cru": 4392,
      "november": 4393,
      "iar": 4394,
      "würden": 4395,
      "spielen": 4396,
      "rad": 4397,
      "wirtschaftlichen": 4398,
      "werte": 4399,
      "verantwortung": 4400,
      "greifen": 4401,
      "veranst": 4402,
      "upon": 4403,
      "mals": 4404,
      "affair": 4405,
      "museum": 4406,
      "democratic": 4407,
      "type": 4408,
      "fit": 4409,
      "els": 4410,
      "teilt": 4411,
      "cd": 4412,
      "everything": 4413,
      "produktion": 4414,
      "imes": 4415,
      "regions": 4416,
      "ansicht": 4417,
      "stock": 4418,
      "treffen": 4419,
      "democracy": 4420,
      "reihe": 4421,
      "travel": 4422,
      "chine": 4423,
      "wall": 4424,
      "ilo": 4425,
      "zahlen": 4426,
      "competition": 4427,
      "method": 4428,
      "beispielsweise": 4429,
      "seen": 4430,
      "verkauf": 4431,
      "erfolgreich": 4432,
      "club": 4433,
      "sus": 4434,
      "zone": 4435,
      "2002": 4436,
      "volle": 4437,
      "item": 4438,
      "ux": 4439,
      "darum": 4440,
      "gliche": 4441,
      "gehört": 4442,
      "haup": 4443,
      "garden": 4444,
      "ös": 4445,
      "weder": 4446,
      "north": 4447,
      "demokratie": 4448,
      "handeln": 4449,
      "flä": 4450,
      "anwendung": 4451,
      "züglich": 4452,
      "edi": 4453,
      "ison": 4454,
      "gebracht": 4455,
      "regionen": 4456,
      "kit": 4457,
      "einsatz": 4458,
      "combin": 4459,
      "nächsten": 4460,
      "pfung": 4461,
      "kontrolle": 4462,
      "image": 4463,
      "engine": 4464,
      "parties": 4465,
      "präsent": 4466,
      "phone": 4467,
      "lay": 4468,
      "comfortable": 4469,
      "mbh": 4470,
      "herren": 4471,
      "requirements": 4472,
      "entscheidung": 4473,
      "april": 4474,
      "customer": 4475,
      "schließen": 4476,
      "condition": 4477,
      "90": 4478,
      "schu": 4479,
      "enough": 4480,
      "läu": 4481,
      "nord": 4482,
      "hinzu": 4483,
      "verhandlungen": 4484,
      "winter": 4485,
      "umsetzung": 4486,
      "üssel": 4487,
      "zentral": 4488,
      "establish": 4489,
      "unver": 4490,
      "months": 4491,
      "developed": 4492,
      "character": 4493,
      "grand": 4494,
      "separ": 4495,
      "fight": 4496,
      "beziehungen": 4497,
      "longer": 4498,
      "menschenrechte": 4499,
      "related": 4500,
      "ined": 4501,
      "weiteren": 4502,
      "prinzip": 4503,
      "agenda": 4504,
      "apply": 4505,
      "ators": 4506,
      "bereichen": 4507,
      "proposed": 4508,
      "ables": 4509,
      "prevent": 4510,
      "article": 4511,
      "wirkungen": 4512,
      "game": 4513,
      "jede": 4514,
      "dad": 4515,
      "vic": 4516,
      "chter": 4517,
      "click": 4518,
      "behörden": 4519,
      "500": 4520,
      "mm": 4521,
      "stud": 4522,
      "camp": 4523,
      "ihres": 4524,
      "fi": 4525,
      "investment": 4526,
      "implementation": 4527,
      "final": 4528,
      "lied": 4529,
      "gewalt": 4530,
      "leistungs": 4531,
      "acro": 4532,
      "zi": 4533,
      "host": 4534,
      "recogn": 4535,
      "ought": 4536,
      "kleinen": 4537,
      "institutionen": 4538,
      "länd": 4539,
      "jedes": 4540,
      "interesse": 4541,
      "search": 4542,
      "gmbh": 4543,
      "nit": 4544,
      "markets": 4545,
      "enthalten": 4546,
      "climate": 4547,
      "publ": 4548,
      "needed": 4549,
      "gemäß": 4550,
      "interests": 4551,
      "soon": 4552,
      "metho": 4553,
      "publik": 4554,
      "held": 4555,
      "ash": 4556,
      "standen": 4557,
      "internationale": 4558,
      "extremely": 4559,
      "mem": 4560,
      "angelegen": 4561,
      "smo": 4562,
      "landes": 4563,
      "familien": 4564,
      "brand": 4565,
      "umente": 4566,
      "franz": 4567,
      "univer": 4568,
      "debatte": 4569,
      "freiheit": 4570,
      "llig": 4571,
      "verfüg": 4572,
      "registr": 4573,
      "uelle": 4574,
      "reserv": 4575,
      "fla": 4576,
      "loss": 4577,
      "überein": 4578,
      "förderung": 4579,
      "hoffe": 4580,
      "erfolg": 4581,
      "motor": 4582,
      "performance": 4583,
      "punkte": 4584,
      "involved": 4585,
      "true": 4586,
      "notwendig": 4587,
      "works": 4588,
      "mob": 4589,
      "additional": 4590,
      "golf": 4591,
      "überzeu": 4592,
      "communication": 4593,
      "monitor": 4594,
      "zweif": 4595,
      "gesundheit": 4596,
      "unique": 4597,
      "living": 4598,
      "consult": 4599,
      "themselves": 4600,
      "ziellen": 4601,
      "modif": 4602,
      "iran": 4603,
      "pruch": 4604,
      "consequ": 4605,
      "entsprech": 4606,
      "document": 4607,
      "fte": 4608,
      "gab": 4609,
      "presented": 4610,
      "nimmt": 4611,
      "either": 4612,
      "jeweil": 4613,
      "ping": 4614,
      "ffe": 4615,
      "efforts": 4616,
      "culture": 4617,
      "iers": 4618,
      "ält": 4619,
      "aufmerk": 4620,
      "chance": 4621,
      "cases": 4622,
      "sex": 4623,
      "files": 4624,
      "verwendet": 4625,
      "previous": 4626,
      "stead": 4627,
      "unch": 4628,
      "fallen": 4629,
      "profit": 4630,
      "mensch": 4631,
      "grenz": 4632,
      "speed": 4633,
      "prep": 4634,
      "solu": 4635,
      "hinder": 4636,
      "fal": 4637,
      "features": 4638,
      "ermöglich": 4639,
      "scheint": 4640,
      "26": 4641,
      "export": 4642,
      "kampf": 4643,
      "verschiedene": 4644,
      "staats": 4645,
      "bisher": 4646,
      "affairs": 4647,
      "prices": 4648,
      "ausgest": 4649,
      "peten": 4650,
      "thanks": 4651,
      "russia": 4652,
      "mote": 4653,
      "apartments": 4654,
      "heiß": 4655,
      "almost": 4656,
      "lic": 4657,
      "kei": 4658,
      "strand": 4659,
      "sozialen": 4660,
      "promot": 4661,
      "karte": 4662,
      "acy": 4663,
      "aufmerksam": 4664,
      "preise": 4665,
      "kn": 4666,
      "schle": 4667,
      "shop": 4668,
      "indic": 4669,
      "actions": 4670,
      "dokument": 4671,
      "corre": 4672,
      "www": 4673,
      "convention": 4674,
      "roman": 4675,
      "maintain": 4676,
      "sucht": 4677,
      "wander": 4678,
      "pc": 4679,
      "cies": 4680,
      "gelten": 4681,
      "appropriate": 4682,
      "verbindung": 4683,
      "neues": 4684,
      "einzelnen": 4685,
      "erhe": 4686,
      "letzt": 4687,
      "bald": 4688,
      "cting": 4689,
      "swi": 4690,
      "tungen": 4691,
      "erreicht": 4692,
      "ested": 4693,
      "france": 4694,
      "sab": 4695,
      "cross": 4696,
      "entsprechen": 4697,
      "walk": 4698,
      "details": 4699,
      "fordert": 4700,
      "depend": 4701,
      "leider": 4702,
      "fortun": 4703,
      "negotiations": 4704,
      "cker": 4705,
      "users": 4706,
      "five": 4707,
      "knowledge": 4708,
      "flexib": 4709,
      "zielle": 4710,
      "designed": 4711,
      "bevölkerung": 4712,
      "parts": 4713,
      "konkre": 4714,
      "räum": 4715,
      "created": 4716,
      "famous": 4717,
      "arg": 4718,
      "mobile": 4719,
      "ändern": 4720,
      "french": 4721,
      "28": 4722,
      "uell": 4723,
      "nitt": 4724,
      "developing": 4725,
      "genie": 4726,
      "rop": 4727,
      "joint": 4728,
      "lösungen": 4729,
      "sinn": 4730,
      "sand": 4731,
      "istischen": 4732,
      "gets": 4733,
      "rup": 4734,
      "american": 4735,
      "included": 4736,
      "entwickelt": 4737,
      "berü": 4738,
      "gän": 4739,
      "frühstück": 4740,
      "disc": 4741,
      "feder": 4742,
      "leis": 4743,
      "gleichen": 4744,
      "weltweit": 4745,
      "unded": 4746,
      "competit": 4747,
      "graf": 4748,
      "kontakt": 4749,
      "sha": 4750,
      "immedi": 4751,
      "absolu": 4752,
      "glück": 4753,
      "später": 4754,
      "wr": 4755,
      "kategor": 4756,
      "damen": 4757,
      "befinden": 4758,
      "wachstum": 4759,
      "fire": 4760,
      "built": 4761,
      "ünst": 4762,
      "erei": 4763,
      "ano": 4764,
      "überprü": 4765,
      "binnen": 4766,
      "könnten": 4767,
      "actually": 4768,
      "anten": 4769,
      "forderung": 4770,
      "diskus": 4771,
      "jud": 4772,
      "island": 4773,
      "ye": 4774,
      "claim": 4775,
      "folgt": 4776,
      "1999": 4777,
      "dut": 4778,
      "vö": 4779,
      "territ": 4780,
      "relations": 4781,
      "nachhalt": 4782,
      "akzept": 4783,
      "andid": 4784,
      "race": 4785,
      "herz": 4786,
      "arbeitung": 4787,
      "kennt": 4788,
      "volks": 4789,
      "street": 4790,
      "analys": 4791,
      "gewä": 4792,
      "dynam": 4793,
      "expect": 4794,
      "wunder": 4795,
      "phas": 4796,
      "ausdruck": 4797,
      "exclus": 4798,
      "zeichen": 4799,
      "record": 4800,
      "ffer": 4801,
      "fahrt": 4802,
      "vorgeschlagen": 4803,
      "workers": 4804,
      "transl": 4805,
      "western": 4806,
      "behand": 4807,
      "iffen": 4808,
      "idea": 4809,
      "determin": 4810,
      "auswirkungen": 4811,
      "verfügt": 4812,
      "schaffung": 4813,
      "early": 4814,
      "double": 4815,
      "anlage": 4816,
      "rum": 4817,
      "grenzen": 4818,
      "fluss": 4819,
      "arbeitspl": 4820,
      "leistung": 4821,
      "swe": 4822,
      "ermöglicht": 4823,
      "asy": 4824,
      "üsse": 4825,
      "atory": 4826,
      "kil": 4827,
      "receive": 4828,
      "throughout": 4829,
      "leading": 4830,
      "exchange": 4831,
      "outside": 4832,
      "größer": 4833,
      "blu": 4834,
      "gefü": 4835,
      "hend": 4836,
      "gegenwärt": 4837,
      "helfen": 4838,
      "apartment": 4839,
      "display": 4840,
      "hinblick": 4841,
      "amount": 4842,
      "dict": 4843,
      "english": 4844,
      "certainly": 4845,
      "kör": 4846,
      "kommunik": 4847,
      "themen": 4848,
      "register": 4849,
      "abgeordneten": 4850,
      "across": 4851,
      "fehler": 4852,
      "dete": 4853,
      "zeiten": 4854,
      "recommend": 4855,
      "syn": 4856,
      "encour": 4857,
      "interessen": 4858,
      "erforderlich": 4859,
      "mentioned": 4860,
      "sau": 4861,
      "haps": 4862,
      "onen": 4863,
      "hatten": 4864,
      "morgen": 4865,
      "anno": 4866,
      "lla": 4867,
      "rail": 4868,
      "refle": 4869,
      "hindern": 4870,
      "hohen": 4871,
      "industrial": 4872,
      "ände": 4873,
      "perhaps": 4874,
      "abzu": 4875,
      "sorgen": 4876,
      "london": 4877,
      "traditional": 4878,
      "basic": 4879,
      "figur": 4880,
      "villa": 4881,
      "takes": 4882,
      "vertrags": 4883,
      "tatsächlich": 4884,
      "langen": 4885,
      "dimen": 4886,
      "gesamten": 4887,
      "enable": 4888,
      "arian": 4889,
      "plant": 4890,
      "exec": 4891,
      "privat": 4892,
      "35": 4893,
      "tion": 4894,
      "bedeuten": 4895,
      "änderungsanträge": 4896,
      "nothing": 4897,
      "hours": 4898,
      "verordnung": 4899,
      "juni": 4900,
      "nahe": 4901,
      "jenigen": 4902,
      "stil": 4903,
      "ceed": 4904,
      "series": 4905,
      "tä": 4906,
      "partners": 4907,
      "iting": 4908,
      "tatsache": 4909,
      "suggest": 4910,
      "pping": 4911,
      "neg": 4912,
      "guarantee": 4913,
      "spezial": 4914,
      "squ": 4915,
      "heut": 4916,
      "sprach": 4917,
      "connection": 4918,
      "intens": 4919,
      "ado": 4920,
      "itu": 4921,
      "neut": 4922,
      "innovation": 4923,
      "six": 4924,
      "august": 4925,
      "ines": 4926,
      "rule": 4927,
      "wünschen": 4928,
      "stic": 4929,
      "benutzer": 4930,
      "gebäu": 4931,
      "coll": 4932,
      "nutzung": 4933,
      "source": 4934,
      "dadurch": 4935,
      "fli": 4936,
      "avo": 4937,
      "email": 4938,
      "stunden": 4939,
      "ellen": 4940,
      "reib": 4941,
      "explo": 4942,
      "wählen": 4943,
      "dle": 4944,
      "griff": 4945,
      "kolleginnen": 4946,
      "doing": 4947,
      "sä": 4948,
      "ilar": 4949,
      "warum": 4950,
      "änderungsantrag": 4951,
      "cup": 4952,
      "denke": 4953,
      "verhält": 4954,
      "majority": 4955,
      "richten": 4956,
      "emphas": 4957,
      "orient": 4958,
      "bund": 4959,
      "übr": 4960,
      "package": 4961,
      "diskussion": 4962,
      "bestät": 4963,
      "kleine": 4964,
      "constitution": 4965,
      "alternative": 4966,
      "öst": 4967,
      "bestand": 4968,
      "regeln": 4969,
      "bran": 4970,
      "richtungen": 4971,
      "dring": 4972,
      "took": 4973,
      "zudem": 4974,
      "wechsel": 4975,
      "coordin": 4976,
      "verte": 4977,
      "broad": 4978,
      "angenommen": 4979,
      "complex": 4980,
      "block": 4981,
      "richtig": 4982,
      "tat": 4983,
      "jedem": 4984,
      "aufgabe": 4985,
      "angesichts": 4986,
      "kung": 4987,
      "itionen": 4988,
      "gree": 4989,
      "writing": 4990,
      "effekt": 4991,
      "isieren": 4992,
      "doppe": 4993,
      "gelt": 4994,
      "wood": 4995,
      "atta": 4996,
      "informations": 4997,
      "attet": 4998,
      "umfang": 4999,
      "ired": 5000,
      "män": 5001,
      "beitrit": 5002,
      "bereiche": 5003,
      "scre": 5004,
      "rü": 5005,
      "forms": 5006,
      "scht": 5007,
      "sent": 5008,
      "style": 5009,
      "45": 5010,
      "installation": 5011,
      "regarding": 5012,
      "legt": 5013,
      "colleag": 5014,
      "kontroll": 5015,
      "concerning": 5016,
      "pfen": 5017,
      "stage": 5018,
      "programmes": 5019,
      "hätte": 5020,
      "städ": 5021,
      "player": 5022,
      "flugh": 5023,
      "love": 5024,
      "strengthen": 5025,
      "ency": 5026,
      "präsidenten": 5027,
      "objective": 5028,
      "base": 5029,
      "jobs": 5030,
      "accommod": 5031,
      "extern": 5032,
      "dialog": 5033,
      "häu": 5034,
      "haft": 5035,
      "existing": 5036,
      "construction": 5037,
      "29": 5038,
      "wachsen": 5039,
      "atic": 5040,
      "deleg": 5041,
      "foot": 5042,
      "aufenth": 5043,
      "urspr": 5044,
      "ändert": 5045,
      "197": 5046,
      "limited": 5047,
      "cep": 5048,
      "hear": 5049,
      "anwend": 5050,
      "military": 5051,
      "konnte": 5052,
      "resort": 5053,
      "potential": 5054,
      "licht": 5055,
      "gy": 5056,
      "ell": 5057,
      "ny": 5058,
      "instead": 5059,
      "gerne": 5060,
      "uß": 5061,
      "equipment": 5062,
      "agent": 5063,
      "technologie": 5064,
      "lässt": 5065,
      "beitrag": 5066,
      "absolute": 5067,
      "agreements": 5068,
      "practice": 5069,
      "hind": 5070,
      "bekämpfung": 5071,
      "black": 5072,
      "stoff": 5073,
      "rea": 5074,
      "ctors": 5075,
      "plus": 5076,
      "usst": 5077,
      "path": 5078,
      "ersch": 5079,
      "format": 5080,
      "thern": 5081,
      "vereinigten": 5082,
      "popular": 5083,
      "seas": 5084,
      "auswahl": 5085,
      "geo": 5086,
      "mehrere": 5087,
      "wein": 5088,
      "simple": 5089,
      "alu": 5090,
      "augen": 5091,
      "lose": 5092,
      "impact": 5093,
      "liz": 5094,
      "concerns": 5095,
      "confl": 5096,
      "fuß": 5097,
      "cert": 5098,
      "veröffentlich": 5099,
      "enlarge": 5100,
      "heißt": 5101,
      "cou": 5102,
      "mün": 5103,
      "kla": 5104,
      "print": 5105,
      "completely": 5106,
      "besu": 5107,
      "ured": 5108,
      "sag": 5109,
      "büro": 5110,
      "mitarbeiter": 5111,
      "hü": 5112,
      "igration": 5113,
      "purch": 5114,
      "gerichtet": 5115,
      "plann": 5116,
      "turkey": 5117,
      "chines": 5118,
      "wichtigen": 5119,
      "element": 5120,
      "appear": 5121,
      "population": 5122,
      "defen": 5123,
      "spo": 5124,
      "includes": 5125,
      "lio": 5126,
      "engage": 5127,
      "roy": 5128,
      "established": 5129,
      "unseres": 5130,
      "hinsichtlich": 5131,
      "similar": 5132,
      "bleibt": 5133,
      "justice": 5134,
      "rieben": 5135,
      "gefähr": 5136,
      "amera": 5137,
      "stimme": 5138,
      "decisions": 5139,
      "creation": 5140,
      "satis": 5141,
      "capa": 5142,
      "subsi": 5143,
      "ukra": 5144,
      "ganze": 5145,
      "portug": 5146,
      "gip": 5147,
      "onom": 5148,
      "shar": 5149,
      "gran": 5150,
      "below": 5151,
      "copy": 5152,
      "choice": 5153,
      "applications": 5154,
      "einheit": 5155,
      "wochen": 5156,
      "former": 5157,
      "ganzen": 5158,
      "verstär": 5159,
      "barce": 5160,
      "aware": 5161,
      "equipped": 5162,
      "acqu": 5163,
      "sky": 5164,
      "gast": 5165,
      "everyone": 5166,
      "bekommen": 5167,
      "iko": 5168,
      "fällen": 5169,
      "wonder": 5170,
      "cri": 5171,
      "änderung": 5172,
      "beein": 5173,
      "gos": 5174,
      "gericht": 5175,
      "doll": 5176,
      "reiben": 5177,
      "perspe": 5178,
      "somit": 5179,
      "allows": 5180,
      "nungs": 5181,
      "wise": 5182,
      "schlussel": 5183,
      "unfortun": 5184,
      "febru": 5185,
      "verständlich": 5186,
      "reasons": 5187,
      "kräf": 5188,
      "choose": 5189,
      "300": 5190,
      "iterr": 5191,
      "scient": 5192,
      "consumer": 5193,
      "fail": 5194,
      "bay": 5195,
      "verteid": 5196,
      "prob": 5197,
      "meines": 5198,
      "bezüglich": 5199,
      "independ": 5200,
      "krank": 5201,
      "sense": 5202,
      "überwach": 5203,
      "agricultural": 5204,
      "oblig": 5205,
      "ki": 5206,
      "yor": 5207,
      "türkei": 5208,
      "gemeinschafts": 5209,
      "enor": 5210,
      "jul": 5211,
      "aden": 5212,
      "bestimmungen": 5213,
      "summer": 5214,
      "fix": 5215,
      "tempor": 5216,
      "anspruch": 5217,
      "reports": 5218,
      "igte": 5219,
      "universit": 5220,
      "poor": 5221,
      "recently": 5222,
      "modell": 5223,
      "anfang": 5224,
      "america": 5225,
      "white": 5226,
      "external": 5227,
      "kern": 5228,
      "sieht": 5229,
      "regular": 5230,
      "values": 5231,
      "gesundheits": 5232,
      "dung": 5233,
      "ires": 5234,
      "antic": 5235,
      "conclus": 5236,
      "kulture": 5237,
      "dez": 5238,
      "brow": 5239,
      "amen": 5240,
      "krimin": 5241,
      "spac": 5242,
      "koordin": 5243,
      "könig": 5244,
      "manager": 5245,
      "entschließung": 5246,
      "dv": 5247,
      "stör": 5248,
      "symb": 5249,
      "radio": 5250,
      "erweiterung": 5251,
      "credit": 5252,
      "bedarf": 5253,
      "learn": 5254,
      "floor": 5255,
      "lager": 5256,
      "balance": 5257,
      "verg": 5258,
      "gült": 5259,
      "ets": 5260,
      "objectives": 5261,
      "efficient": 5262,
      "präsidentschaft": 5263,
      "temper": 5264,
      "generation": 5265,
      "barcelon": 5266,
      "influ": 5267,
      "counter": 5268,
      "gress": 5269,
      "bind": 5270,
      "distribution": 5271,
      "französ": 5272,
      "relev": 5273,
      "guarante": 5274,
      "aktivitäten": 5275,
      "deck": 5276,
      "assess": 5277,
      "received": 5278,
      "veh": 5279,
      "komfort": 5280,
      "esh": 5281,
      "benefit": 5282,
      "hom": 5283,
      "telefon": 5284,
      "fisher": 5285,
      "gangs": 5286,
      "linux": 5287,
      "ni": 5288,
      "iment": 5289,
      "koll": 5290,
      "administ": 5291,
      "mediterr": 5292,
      "künst": 5293,
      "lisbon": 5294,
      "materials": 5295,
      "wirtschaftliche": 5296,
      "debian": 5297,
      "zah": 5298,
      "barkeit": 5299,
      "spend": 5300,
      "konzentr": 5301,
      "goods": 5302,
      "desp": 5303,
      "genießen": 5304,
      "verwenden": 5305,
      "sibil": 5306,
      "exhib": 5307,
      "spezif": 5308,
      "hohe": 5309,
      "familie": 5310,
      "dauer": 5311,
      "körper": 5312,
      "erlau": 5313,
      "ausch": 5314,
      "middle": 5315,
      "zielen": 5316,
      "swit": 5317,
      "alte": 5318,
      "soph": 5319,
      "door": 5320,
      "militär": 5321,
      "projekte": 5322,
      "added": 5323,
      "han": 5324,
      "treatment": 5325,
      "traffic": 5326,
      "frankreich": 5327,
      "hm": 5328,
      "stability": 5329,
      "anlagen": 5330,
      "grie": 5331,
      "discover": 5332,
      "instruments": 5333,
      "bedür": 5334,
      "aufzu": 5335,
      "corpor": 5336,
      "experien": 5337,
      "binnenmarkt": 5338,
      "gerecht": 5339,
      "pag": 5340,
      "phys": 5341,
      "woche": 5342,
      "iso": 5343,
      "mai": 5344,
      "prem": 5345,
      "bestell": 5346,
      "size": 5347,
      "ots": 5348,
      "ergebnisse": 5349,
      "administrat": 5350,
      "stellungen": 5351,
      "wichtigsten": 5352,
      "öster": 5353,
      "tools": 5354,
      "rig": 5355,
      "31": 5356,
      "einzig": 5357,
      "bir": 5358,
      "verwendung": 5359,
      "thin": 5360,
      "ären": 5361,
      "quickly": 5362,
      "freien": 5363,
      "verbesserung": 5364,
      "jugend": 5365,
      "ferien": 5366,
      "technik": 5367,
      "yon": 5368,
      "enthält": 5369,
      "angemessen": 5370,
      "dimension": 5371,
      "successful": 5372,
      "marketing": 5373,
      "university": 5374,
      "lissab": 5375,
      "congratul": 5376,
      "swim": 5377,
      "erzeu": 5378,
      "bab": 5379,
      "ico": 5380,
      "irgend": 5381,
      "rang": 5382,
      "ries": 5383,
      "bewert": 5384,
      "desk": 5385,
      "guten": 5386,
      "mac": 5387,
      "adap": 5388,
      "frequ": 5389,
      "ml": 5390,
      "tagen": 5391,
      "konfli": 5392,
      "shows": 5393,
      "huge": 5394,
      "depart": 5395,
      "despite": 5396,
      "meinem": 5397,
      "geeig": 5398,
      "suche": 5399,
      "dialogue": 5400,
      "klicken": 5401,
      "arm": 5402,
      "fördern": 5403,
      "ón": 5404,
      "entwickeln": 5405,
      "gold": 5406,
      "contains": 5407,
      "arbeitnehmer": 5408,
      "ature": 5409,
      "warm": 5410,
      "erung": 5411,
      "games": 5412,
      "lissabon": 5413,
      "anforderungen": 5414,
      "ider": 5415,
      "lass": 5416,
      "tit": 5417,
      "wobei": 5418,
      "barcelona": 5419,
      "mountain": 5420,
      "itel": 5421,
      "ultim": 5422,
      "promise": 5423,
      "höhe": 5424,
      "tres": 5425,
      "gerä": 5426,
      "umgebung": 5427,
      "commercial": 5428,
      "uren": 5429,
      "sommer": 5430,
      "aust": 5431,
      "join": 5432,
      "auftrag": 5433,
      "straße": 5434,
      "highly": 5435,
      "kürz": 5436,
      "interpre": 5437,
      "consumers": 5438,
      "deliver": 5439,
      "handen": 5440,
      "places": 5441,
      "placed": 5442,
      "196": 5443,
      "ony": 5444,
      "organisationen": 5445,
      "sports": 5446,
      "speich": 5447,
      "bern": 5448,
      "insgesamt": 5449,
      "anzahl": 5450,
      "nations": 5451,
      "beginning": 5452,
      "betroffen": 5453,
      "section": 5454,
      "öhn": 5455,
      "electron": 5456,
      "carry": 5457,
      "krieg": 5458,
      "highl": 5459,
      "ermöglichen": 5460,
      "governments": 5461,
      "levels": 5462,
      "labour": 5463,
      "rä": 5464,
      "russland": 5465,
      "gründen": 5466,
      "fälle": 5467,
      "essern": 5468,
      "stag": 5469,
      "discuss": 5470,
      "audio": 5471,
      "erach": 5472,
      "medien": 5473,
      "june": 5474,
      "afen": 5475,
      "paper": 5476,
      "achieved": 5477,
      "symbol": 5478,
      "pes": 5479,
      "steller": 5480,
      "plat": 5481,
      "brid": 5482,
      "ume": 5483,
      "ktionen": 5484,
      "genannten": 5485,
      "arten": 5486,
      "circ": 5487,
      "wann": 5488,
      "abend": 5489,
      "nuclear": 5490,
      "pi": 5491,
      "oil": 5492,
      "sustainable": 5493,
      "ush": 5494,
      "vari": 5495,
      "supply": 5496,
      "condu": 5497,
      "seems": 5498,
      "vorhanden": 5499,
      "chair": 5500,
      "usion": 5501,
      "karten": 5502,
      "direction": 5503,
      "closed": 5504,
      "deutschen": 5505,
      "übrigen": 5506,
      "achen": 5507,
      "aufbau": 5508,
      "princi": 5509,
      "happ": 5510,
      "numer": 5511,
      "asked": 5512,
      "partei": 5513,
      "urlaub": 5514,
      "err": 5515,
      "schließend": 5516,
      "gelegenheit": 5517,
      "belg": 5518,
      "behandlung": 5519,
      "keyword": 5520,
      "produz": 5521,
      "österreich": 5522,
      "innovative": 5523,
      "reviews": 5524,
      "fru": 5525,
      "hall": 5526,
      "ätzen": 5527,
      "ift": 5528,
      "march": 5529,
      "hoff": 5530,
      "uses": 5531,
      "völlig": 5532,
      "amster": 5533,
      "hoben": 5534,
      "setting": 5535,
      "allgemeinen": 5536,
      "nachdem": 5537,
      "amsterdam": 5538,
      "eigene": 5539,
      "kred": 5540,
      "sate": 5541,
      "zahlreiche": 5542,
      "increased": 5543,
      "bilder": 5544,
      "klass": 5545,
      "revol": 5546,
      "study": 5547,
      "sofort": 5548,
      "maschin": 5549,
      "summit": 5550,
      "soziale": 5551,
      "erweise": 5552,
      "higher": 5553,
      "gefunden": 5554,
      "ith": 5555,
      "herzen": 5556,
      "nes": 5557,
      "vergleich": 5558,
      "republic": 5559,
      "esten": 5560,
      "village": 5561,
      "vehic": 5562,
      "garten": 5563,
      "lesen": 5564,
      "attem": 5565,
      "beschrän": 5566,
      "häre": 5567,
      "xis": 5568,
      "relevant": 5569,
      "nungen": 5570,
      "lernen": 5571,
      "rechen": 5572,
      "allein": 5573,
      "kel": 5574,
      "verbessern": 5575,
      "großer": 5576,
      "evalu": 5577,
      "flor": 5578,
      "accommodation": 5579,
      "gnis": 5580,
      "sech": 5581,
      "ähn": 5582,
      "grundlegen": 5583,
      "property": 5584,
      "adopt": 5585,
      "drive": 5586,
      "ption": 5587,
      "correct": 5588,
      "erfahrung": 5589,
      "coast": 5590,
      "hle": 5591,
      "unfortunately": 5592,
      "agreed": 5593,
      "iveness": 5594,
      "dennoch": 5595,
      "fine": 5596,
      "dienste": 5597,
      "gi": 5598,
      "nr": 5599,
      "principles": 5600,
      "sort": 5601,
      "minder": 5602,
      "neigh": 5603,
      "zeitpunkt": 5604,
      "leader": 5605,
      "york": 5606,
      "achten": 5607,
      "submitted": 5608,
      "mie": 5609,
      "sprachen": 5610,
      "gehören": 5611,
      "effects": 5612,
      "master": 5613,
      "carried": 5614,
      "worth": 5615,
      "bese": 5616,
      "gesamte": 5617,
      "prefer": 5618,
      "theless": 5619,
      "verfügen": 5620,
      "opportunities": 5621,
      "ruh": 5622,
      "regime": 5623,
      "statist": 5624,
      "obvious": 5625,
      "schlagen": 5626,
      "arab": 5627,
      "wenden": 5628,
      "heil": 5629,
      "suite": 5630,
      "danger": 5631,
      "child": 5632,
      "behind": 5633,
      "buffe": 5634,
      "domin": 5635,
      "günst": 5636,
      "diskut": 5637,
      "ery": 5638,
      "samm": 5639,
      "ziell": 5640,
      "categor": 5641,
      "conven": 5642,
      "limit": 5643,
      "bewertungen": 5644,
      "administr": 5645,
      "klus": 5646,
      "stark": 5647,
      "spar": 5648,
      "whose": 5649,
      "vollen": 5650,
      "possibility": 5651,
      "conv": 5652,
      "medium": 5653,
      "eing": 5654,
      "pressed": 5655,
      "fran": 5656,
      "pil": 5657,
      "trend": 5658,
      "versuchen": 5659,
      "considered": 5660,
      "quo": 5661,
      "notwendigkeit": 5662,
      "itim": 5663,
      "arrange": 5664,
      "enterprise": 5665,
      "commitment": 5666,
      "bewusst": 5667,
      "einführung": 5668,
      "imp": 5669,
      "concept": 5670,
      "written": 5671,
      "matters": 5672,
      "inen": 5673,
      "liebe": 5674,
      "nav": 5675,
      "gewicht": 5676,
      "spann": 5677,
      "damage": 5678,
      "anders": 5679,
      "dienen": 5680,
      "plain": 5681,
      "gesprochen": 5682,
      "screen": 5683,
      "ips": 5684,
      "vorher": 5685,
      "independent": 5686,
      "exclusive": 5687,
      "reading": 5688,
      "größten": 5689,
      "amt": 5690,
      "went": 5691,
      "minute": 5692,
      "shops": 5693,
      "draft": 5694,
      "republik": 5695,
      "latest": 5696,
      "hostel": 5697,
      "talk": 5698,
      "mäßig": 5699,
      "verstehen": 5700,
      "listen": 5701,
      "shown": 5702,
      "länger": 5703,
      "straßen": 5704,
      "verhalten": 5705,
      "ously": 5706,
      "koso": 5707,
      "prehen": 5708,
      "dient": 5709,
      "maschinen": 5710,
      "regierungen": 5711,
      "fält": 5712,
      "aspects": 5713,
      "plans": 5714,
      "obtain": 5715,
      "öffnet": 5716,
      "dipl": 5717,
      "capacity": 5718,
      "geist": 5719,
      "response": 5720,
      "prepared": 5721,
      "providing": 5722,
      "pressure": 5723,
      "eindeut": 5724,
      "stands": 5725,
      "übernach": 5726,
      "bestimmte": 5727,
      "prepar": 5728,
      "spirit": 5729,
      "hot": 5730,
      "schweiz": 5731,
      "charge": 5732,
      "woll": 5733,
      "sourcen": 5734,
      "easily": 5735,
      "promote": 5736,
      "ford": 5737,
      "mehrheit": 5738,
      "datei": 5739,
      "letter": 5740,
      "rought": 5741,
      "suffer": 5742,
      "zielt": 5743,
      "ills": 5744,
      "ledig": 5745,
      "gewis": 5746,
      "sufficient": 5747,
      "kriter": 5748,
      "emer": 5749,
      "kenn": 5750,
      "schriftlich": 5751,
      "wirksam": 5752,
      "verse": 5753,
      "spain": 5754,
      "forum": 5755,
      "este": 5756,
      "mediterrane": 5757,
      "unsch": 5758,
      "doppel": 5759,
      "ney": 5760,
      "erklärung": 5761,
      "atmosphere": 5762,
      "lediglich": 5763,
      "enlargement": 5764,
      "ehm": 5765,
      "az": 5766,
      "zweite": 5767,
      "pension": 5768,
      "client": 5769,
      "mented": 5770,
      "verwaltung": 5771,
      "inhalt": 5772,
      "tourist": 5773,
      "vertreten": 5774,
      "italy": 5775,
      "buy": 5776,
      "äußerst": 5777,
      "swimming": 5778,
      "sar": 5779,
      "review": 5780,
      "fähig": 5781,
      "erster": 5782,
      "besitz": 5783,
      "movement": 5784,
      "billion": 5785,
      "precise": 5786,
      "ausschuß": 5787,
      "track": 5788,
      "rede": 5789,
      "hören": 5790,
      "renov": 5791,
      "pap": 5792,
      "hous": 5793,
      "artige": 5794,
      "leave": 5795,
      "stam": 5796,
      "sq": 5797,
      "iffe": 5798,
      "keits": 5799,
      "äst": 5800,
      "ases": 5801,
      "employe": 5802,
      "erkennen": 5803,
      "regulations": 5804,
      "quiet": 5805,
      "italian": 5806,
      "protokoll": 5807,
      "phase": 5808,
      "verz": 5809,
      "reached": 5810,
      "assistance": 5811,
      "sole": 5812,
      "spect": 5813,
      "criter": 5814,
      "bewe": 5815,
      "bundes": 5816,
      "entscheidungen": 5817,
      "getr": 5818,
      "zivil": 5819,
      "protect": 5820,
      "decided": 5821,
      "trägt": 5822,
      "priority": 5823,
      "signal": 5824,
      "küche": 5825,
      "kontin": 5826,
      "zeuge": 5827,
      "late": 5828,
      "fehlen": 5829,
      "wesen": 5830,
      "asyl": 5831,
      "teu": 5832,
      "reduce": 5833,
      "produced": 5834,
      "ante": 5835,
      "reduz": 5836,
      "beob": 5837,
      "wettbewerb": 5838,
      "ausgestattet": 5839,
      "wine": 5840,
      "stet": 5841,
      "comprehen": 5842,
      "bege": 5843,
      "islam": 5844,
      "danke": 5845,
      "erfahren": 5846,
      "virt": 5847,
      "versor": 5848,
      "atl": 5849,
      "mains": 5850,
      "konstru": 5851,
      "befür": 5852,
      "stress": 5853,
      "thous": 5854,
      "pression": 5855,
      "africa": 5856,
      "announ": 5857,
      "flow": 5858,
      "lok": 5859,
      "akter": 5860,
      "shopping": 5861,
      "vorzu": 5862,
      "gerichte": 5863,
      "gewährleisten": 5864,
      "waffen": 5865,
      "gives": 5866,
      "gebäude": 5867,
      "unternehmens": 5868,
      "beschäftigung": 5869,
      "vorliegen": 5870,
      "bringt": 5871,
      "buffet": 5872,
      "cia": 5873,
      "kommissarin": 5874,
      "ads": 5875,
      "wesentlich": 5876,
      "lake": 5877,
      "sales": 5878,
      "british": 5879,
      "glauben": 5880,
      "funding": 5881,
      "empfehl": 5882,
      "purpose": 5883,
      "surround": 5884,
      "rechnung": 5885,
      "wto": 5886,
      "december": 5887,
      "arily": 5888,
      "partnership": 5889,
      "aufgaben": 5890,
      "blog": 5891,
      "fläche": 5892,
      "diplom": 5893,
      "supported": 5894,
      "1998": 5895,
      "ukraine": 5896,
      "standing": 5897,
      "lled": 5898,
      "erheb": 5899,
      "beschl": 5900,
      "gefahr": 5901,
      "message": 5902,
      "creating": 5903,
      "tas": 5904,
      "ini": 5905,
      "legitim": 5906,
      "rene": 5907,
      "tier": 5908,
      "uted": 5909,
      "divers": 5910,
      "pel": 5911,
      "einrichtungen": 5912,
      "vertreter": 5913,
      "tte": 5914,
      "erhält": 5915,
      "bestimmten": 5916,
      "shof": 5917,
      "dir": 5918,
      "kosovo": 5919,
      "legung": 5920,
      "sitzen": 5921,
      "association": 5922,
      "task": 5923,
      "legislative": 5924,
      "wurf": 5925,
      "reli": 5926,
      "secre": 5927,
      "bert": 5928,
      "structural": 5929,
      "perform": 5930,
      "ault": 5931,
      "selbstverständlich": 5932,
      "deutsche": 5933,
      "verhältnis": 5934,
      "antworten": 5935,
      "wahrschein": 5936,
      "betrieb": 5937,
      "contract": 5938,
      "vital": 5939,
      "aking": 5940,
      "iens": 5941,
      "eigentlich": 5942,
      "jahrhundert": 5943,
      "offiz": 5944,
      "lern": 5945,
      "steps": 5946,
      "browser": 5947,
      "remains": 5948,
      "aufgenommen": 5949,
      "parking": 5950,
      "architect": 5951,
      "32": 5952,
      "standpunkt": 5953,
      "fresh": 5954,
      "statement": 5955,
      "payment": 5956,
      "setzungen": 5957,
      "dise": 5958,
      "jün": 5959,
      "remo": 5960,
      "activity": 5961,
      "erachtens": 5962,
      "schnitt": 5963,
      "stoffe": 5964,
      "berichts": 5965,
      "annual": 5966,
      "sibilities": 5967,
      "dinge": 5968,
      "nic": 5969,
      "furthermore": 5970,
      "fishing": 5971,
      "firma": 5972,
      "komplex": 5973,
      "kapital": 5974,
      "square": 5975,
      "zufrieden": 5976,
      "mix": 5977,
      "technologies": 5978,
      "plen": 5979,
      "oben": 5980,
      "alb": 5981,
      "ressourcen": 5982,
      "satell": 5983,
      "alp": 5984,
      "investitionen": 5985,
      "paar": 5986,
      "kennen": 5987,
      "measure": 5988,
      "presents": 5989,
      "führer": 5990,
      "ased": 5991,
      "thousand": 5992,
      "cement": 5993,
      "secure": 5994,
      "repe": 5995,
      "ya": 5996,
      "einzige": 5997,
      "zweitens": 5998,
      "vorgesehen": 5999,
      "cape": 6000,
      "encourage": 6001,
      "produce": 6002,
      "acceptable": 6003,
      "else": 6004,
      "feed": 6005,
      "ansatz": 6006,
      "dateien": 6007,
      "fab": 6008,
      "landwirtschaft": 6009,
      "somet": 6010,
      "patient": 6011,
      "konzept": 6012,
      "freie": 6013,
      "uz": 6014,
      "effizien": 6015,
      "wandel": 6016,
      "flughafen": 6017,
      "einschließlich": 6018,
      "dev": 6019,
      "uk": 6020,
      "antly": 6021,
      "iency": 6022,
      "compon": 6023,
      "tter": 6024,
      "fortschritte": 6025,
      "erkann": 6026,
      "fts": 6027,
      "ato": 6028,
      "nik": 6029,
      "verletz": 6030,
      "ständigen": 6031,
      "illegal": 6032,
      "fried": 6033,
      "pointed": 6034,
      "spieler": 6035,
      "fassen": 6036,
      "sonst": 6037,
      "ierter": 6038,
      "pover": 6039,
      "banken": 6040,
      "categories": 6041,
      "fischerei": 6042,
      "erreich": 6043,
      "minimum": 6044,
      "nive": 6045,
      "scen": 6046,
      "rand": 6047,
      "sage": 6048,
      "astrop": 6049,
      "dezember": 6050,
      "interesting": 6051,
      "mers": 6052,
      "bulgar": 6053,
      "conclu": 6054,
      "gebü": 6055,
      "january": 6056,
      "sagte": 6057,
      "rock": 6058,
      "cul": 6059,
      "mente": 6060,
      "paid": 6061,
      "afgh": 6062,
      "ality": 6063,
      "ites": 6064,
      "october": 6065,
      "berat": 6066,
      "minor": 6067,
      "variety": 6068,
      "altungs": 6069,
      "anzen": 6070,
      "werke": 6071,
      "iation": 6072,
      "wunsch": 6073,
      "official": 6074,
      "kombin": 6075,
      "river": 6076,
      "mediterranean": 6077,
      "discussion": 6078,
      "administration": 6079,
      "pleased": 6080,
      "brought": 6081,
      "distance": 6082,
      "release": 6083,
      "largest": 6084,
      "ursprün": 6085,
      "schlüssel": 6086,
      "solidarity": 6087,
      "month": 6088,
      "blue": 6089,
      "aufenthalt": 6090,
      "untersuch": 6091,
      "reisen": 6092,
      "decken": 6093,
      "touch": 6094,
      "36": 6095,
      "colo": 6096,
      "anfrage": 6097,
      "nommen": 6098,
      "build": 6099,
      "monitoring": 6100,
      "solchen": 6101,
      "lower": 6102,
      "ierenden": 6103,
      "häufig": 6104,
      "folgenden": 6105,
      "map": 6106,
      "beide": 6107,
      "wirken": 6108,
      "ateral": 6109,
      "aufnahme": 6110,
      "aul": 6111,
      "keiner": 6112,
      "pic": 6113,
      "avoid": 6114,
      "happy": 6115,
      "wahlen": 6116,
      "relationship": 6117,
      "caf": 6118,
      "ahme": 6119,
      "schiff": 6120,
      "gebaut": 6121,
      "patent": 6122,
      "brief": 6123,
      "integrated": 6124,
      "tains": 6125,
      "afghan": 6126,
      "vertrauen": 6127,
      "operations": 6128,
      "zz": 6129,
      "forget": 6130,
      "logical": 6131,
      "agency": 6132,
      "giving": 6133,
      "journal": 6134,
      "friends": 6135,
      "jur": 6136,
      "aktionen": 6137,
      "leute": 6138,
      "agriculture": 6139,
      "europäischer": 6140,
      "forschungs": 6141,
      "vergessen": 6142,
      "falt": 6143,
      "operating": 6144,
      "ering": 6145,
      "ille": 6146,
      "tom": 6147,
      "gering": 6148,
      "nacht": 6149,
      "wid": 6150,
      "sometimes": 6151,
      "hour": 6152,
      "studi": 6153,
      "deten": 6154,
      "spanish": 6155,
      "ns": 6156,
      "historical": 6157,
      "documents": 6158,
      "lives": 6159,
      "daily": 6160,
      "won": 6161,
      "diejenigen": 6162,
      "elektron": 6163,
      "mes": 6164,
      "moderne": 6165,
      "equal": 6166,
      "boden": 6167,
      "craft": 6168,
      "hause": 6169,
      "secondly": 6170,
      "aren": 6171,
      "kategorien": 6172,
      "kolle": 6173,
      "definition": 6174,
      "intell": 6175,
      "vergangenen": 6176,
      "wenige": 6177,
      "märz": 6178,
      "started": 6179,
      "exact": 6180,
      "curren": 6181,
      "types": 6182,
      "parteien": 6183,
      "advantage": 6184,
      "metro": 6185,
      "oktober": 6186,
      "subsidi": 6187,
      "launch": 6188,
      "verbre": 6189,
      "bezogen": 6190,
      "procedures": 6191,
      "lam": 6192,
      "gram": 6193,
      "became": 6194,
      "machine": 6195,
      "regards": 6196,
      "bahnhof": 6197,
      "ram": 6198,
      "consist": 6199,
      "firmen": 6200,
      "detail": 6201,
      "bear": 6202,
      "cham": 6203,
      "lob": 6204,
      "teach": 6205,
      "berecht": 6206,
      "resse": 6207,
      "meter": 6208,
      "lösen": 6209,
      "temporary": 6210,
      "liter": 6211,
      "agrar": 6212,
      "cities": 6213,
      "expen": 6214,
      "clients": 6215,
      "allowed": 6216,
      "revolution": 6217,
      "telle": 6218,
      "ref": 6219,
      "images": 6220,
      "beschreib": 6221,
      "violence": 6222,
      "ausführ": 6223,
      "scientific": 6224,
      "erinn": 6225,
      "effort": 6226,
      "emal": 6227,
      "elements": 6228,
      "dates": 6229,
      "braucht": 6230,
      "organisations": 6231,
      "aufmerksamkeit": 6232,
      "adem": 6233,
      "nummer": 6234,
      "moreover": 6235,
      "jun": 6236,
      "wellness": 6237,
      "juli": 6238,
      "wege": 6239,
      "jem": 6240,
      "itation": 6241,
      "roh": 6242,
      "frem": 6243,
      "death": 6244,
      "numerous": 6245,
      "gewöhn": 6246,
      "effic": 6247,
      "öffentliche": 6248,
      "compromise": 6249,
      "roll": 6250,
      "verring": 6251,
      "conflict": 6252,
      "ereign": 6253,
      "48": 6254,
      "praxis": 6255,
      "euch": 6256,
      "ero": 6257,
      "cha": 6258,
      "analysis": 6259,
      "gästebewertungen": 6260,
      "angeboten": 6261,
      "istische": 6262,
      "cc": 6263,
      "valle": 6264,
      "philo": 6265,
      "gemü": 6266,
      "demokratischen": 6267,
      "pd": 6268,
      "firstly": 6269,
      "wichtiger": 6270,
      "provisions": 6271,
      "transparency": 6272,
      "paket": 6273,
      "contribution": 6274,
      "geber": 6275,
      "itude": 6276,
      "mous": 6277,
      "ützen": 6278,
      "dol": 6279,
      "geln": 6280,
      "beyon": 6281,
      "erwarten": 6282,
      "serve": 6283,
      "ories": 6284,
      "verantwortlich": 6285,
      "church": 6286,
      "forces": 6287,
      "transparenz": 6288,
      "schreiben": 6289,
      "utt": 6290,
      "nöt": 6291,
      "expe": 6292,
      "beyond": 6293,
      "tritt": 6294,
      "july": 6295,
      "früher": 6296,
      "festival": 6297,
      "multi": 6298,
      "unmittel": 6299,
      "niedr": 6300,
      "served": 6301,
      "bedürf": 6302,
      "rechten": 6303,
      "ktive": 6304,
      "tent": 6305,
      "produkten": 6306,
      "finanzierung": 6307,
      "spun": 6308,
      "accep": 6309,
      "starting": 6310,
      "sn": 6311,
      "institutional": 6312,
      "vorsitz": 6313,
      "sämt": 6314,
      "dence": 6315,
      "zeichnung": 6316,
      "cook": 6317,
      "dritt": 6318,
      "eingesetzt": 6319,
      "sache": 6320,
      "gers": 6321,
      "wol": 6322,
      "schw": 6323,
      "iste": 6324,
      "immediately": 6325,
      "kriterien": 6326,
      "criteria": 6327,
      "pful": 6328,
      "versicher": 6329,
      "konnten": 6330,
      "adresse": 6331,
      "ques": 6332,
      "portugal": 6333,
      "75": 6334,
      "regierungs": 6335,
      "holz": 6336,
      "wald": 6337,
      "maximum": 6338,
      "helpful": 6339,
      "genu": 6340,
      "auern": 6341,
      "laufen": 6342,
      "dorf": 6343,
      "offering": 6344,
      "zweck": 6345,
      "boot": 6346,
      "perman": 6347,
      "applied": 6348,
      "ique": 6349,
      "session": 6350,
      "schwar": 6351,
      "ourselves": 6352,
      "poses": 6353,
      "options": 6354,
      "poverty": 6355,
      "äne": 6356,
      "psy": 6357,
      "kräfte": 6358,
      "benötigen": 6359,
      "wee": 6360,
      "ausgaben": 6361,
      "ially": 6362,
      "formul": 6363,
      "tp": 6364,
      "nationen": 6365,
      "tourism": 6366,
      "historic": 6367,
      "zert": 6368,
      "reality": 6369,
      "eco": 6370,
      "occur": 6371,
      "studio": 6372,
      "beziehen": 6373,
      "kilome": 6374,
      "fand": 6375,
      "tagesordnung": 6376,
      "betreffen": 6377,
      "bathroom": 6378,
      "info": 6379,
      "katastrop": 6380,
      "1997": 6381,
      "ara": 6382,
      "employees": 6383,
      "vas": 6384,
      "morrow": 6385,
      "charakter": 6386,
      "zt": 6387,
      "erstens": 6388,
      "durchgeführt": 6389,
      "highest": 6390,
      "januar": 6391,
      "casino": 6392,
      "rapid": 6393,
      "bemühungen": 6394,
      "pricht": 6395,
      "größte": 6396,
      "bein": 6397,
      "verabsch": 6398,
      "goo": 6399,
      "ieb": 6400,
      "märkte": 6401,
      "benefits": 6402,
      "kompro": 6403,
      "stärker": 6404,
      "funktionen": 6405,
      "goes": 6406,
      "guard": 6407,
      "bürgern": 6408,
      "sätze": 6409,
      "kannst": 6410,
      "fill": 6411,
      "watch": 6412,
      "kredit": 6413,
      "grü": 6414,
      "growing": 6415,
      "aktuellen": 6416,
      "programms": 6417,
      "persons": 6418,
      "bilden": 6419,
      "monaten": 6420,
      "poker": 6421,
      "tomorrow": 6422,
      "occas": 6423,
      "players": 6424,
      "dollar": 6425,
      "heav": 6426,
      "lebensmittel": 6427,
      "verme": 6428,
      "heben": 6429,
      "useful": 6430,
      "cin": 6431,
      "color": 6432,
      "analyse": 6433,
      "ergän": 6434,
      "würdig": 6435,
      "walking": 6436,
      "getan": 6437,
      "stable": 6438,
      "reference": 6439,
      "sinne": 6440,
      "expert": 6441,
      "gipfel": 6442,
      "luß": 6443,
      "drücklich": 6444,
      "sorge": 6445,
      "öffentlichkeit": 6446,
      "freuen": 6447,
      "pfl": 6448,
      "poly": 6449,
      "gla": 6450,
      "comb": 6451,
      "gaz": 6452,
      "höher": 6453,
      "emissions": 6454,
      "ista": 6455,
      "earth": 6456,
      "auffassung": 6457,
      "ech": 6458,
      "schü": 6459,
      "practical": 6460,
      "armut": 6461,
      "comprehensive": 6462,
      "mere": 6463,
      "advert": 6464,
      "geleg": 6465,
      "humanit": 6466,
      "01": 6467,
      "dvd": 6468,
      "schönen": 6469,
      "unten": 6470,
      "processes": 6471,
      "richtige": 6472,
      "science": 6473,
      "ias": 6474,
      "griffen": 6475,
      "spit": 6476,
      "select": 6477,
      "exception": 6478,
      "target": 6479,
      "erneut": 6480,
      "absicht": 6481,
      "menu": 6482,
      "thought": 6483,
      "zeichnen": 6484,
      "technischen": 6485,
      "sitzung": 6486,
      "foundation": 6487,
      "colleagues": 6488,
      "bildungs": 6489,
      "atom": 6490,
      "challenges": 6491,
      "pictures": 6492,
      "elections": 6493,
      "onnen": 6494,
      "bett": 6495,
      "waste": 6496,
      "existen": 6497,
      "steigen": 6498,
      "eher": 6499,
      "cription": 6500,
      "gebieten": 6501,
      "para": 6502,
      "restr": 6503,
      "hit": 6504,
      "geworden": 6505,
      "update": 6506,
      "challenge": 6507,
      "lizen": 6508,
      "wiss": 6509,
      "terrorism": 6510,
      "wortern": 6511,
      "nachbar": 6512,
      "izin": 6513,
      "preci": 6514,
      "iraq": 6515,
      "lost": 6516,
      "geschaffen": 6517,
      "bag": 6518,
      "sym": 6519,
      "urance": 6520,
      "adjust": 6521,
      "parame": 6522,
      "400": 6523,
      "és": 6524,
      "sonder": 6525,
      "beau": 6526,
      "langfrist": 6527,
      "kro": 6528,
      "kurs": 6529,
      "sechs": 6530,
      "fish": 6531,
      "bauen": 6532,
      "victim": 6533,
      "deine": 6534,
      "bürgerinnen": 6535,
      "begrüße": 6536,
      "opfer": 6537,
      "ideas": 6538,
      "monetary": 6539,
      "era": 6540,
      "kitchen": 6541,
      "rain": 6542,
      "feu": 6543,
      "achtung": 6544,
      "saying": 6545,
      "begrenz": 6546,
      "isol": 6547,
      "cohes": 6548,
      "fasst": 6549,
      "entsprechend": 6550,
      "lehr": 6551,
      "neighbour": 6552,
      "ax": 6553,
      "33": 6554,
      "wagen": 6555,
      "decor": 6556,
      "begle": 6557,
      "absol": 6558,
      "microsoft": 6559,
      "worte": 6560,
      "kenntnis": 6561,
      "atmosphäre": 6562,
      "erc": 6563,
      "fein": 6564,
      "zuver": 6565,
      "poli": 6566,
      "eastern": 6567,
      "immobil": 6568,
      "bren": 6569,
      "austria": 6570,
      "efficiency": 6571,
      "einrichtung": 6572,
      "offered": 6573,
      "hilfen": 6574,
      "fitness": 6575,
      "verstanden": 6576,
      "modified": 6577,
      "ausgezeich": 6578,
      "spannen": 6579,
      "hi": 6580,
      "parag": 6581,
      "zweifel": 6582,
      "schlusselwortern": 6583,
      "mittler": 6584,
      "berichte": 6585,
      "vac": 6586,
      "delegation": 6587,
      "consequences": 6588,
      "entsprechenden": 6589,
      "medic": 6590,
      "campa": 6591,
      "gesche": 6592,
      "ky": 6593,
      "betriebs": 6594,
      "adequ": 6595,
      "schöne": 6596,
      "voting": 6597,
      "panor": 6598,
      "mechanis": 6599,
      "published": 6600,
      "künstler": 6601,
      "button": 6602,
      "rural": 6603,
      "beitragen": 6604,
      "sichern": 6605,
      "entwurf": 6606,
      "genutz": 6607,
      "welches": 6608,
      "aspekte": 6609,
      "behandelt": 6610,
      "erd": 6611,
      "besuchen": 6612,
      "hund": 6613,
      "bedingt": 6614,
      "collection": 6615,
      "terrace": 6616,
      "tos": 6617,
      "born": 6618,
      "wanted": 6619,
      "herstellung": 6620,
      "behalten": 6621,
      "150": 6622,
      "trägen": 6623,
      "begin": 6624,
      "worldwide": 6625,
      "quis": 6626,
      "produktions": 6627,
      "haushalt": 6628,
      "otherwise": 6629,
      "infl": 6630,
      "poll": 6631,
      "bars": 6632,
      "google": 6633,
      "erfolgt": 6634,
      "ration": 6635,
      "palest": 6636,
      "semin": 6637,
      "fügen": 6638,
      "opposition": 6639,
      "medizin": 6640,
      "vul": 6641,
      "plug": 6642,
      "zuführen": 6643,
      "wirkung": 6644,
      "hätten": 6645,
      "morning": 6646,
      "afrika": 6647,
      "visitors": 6648,
      "rot": 6649,
      "federal": 6650,
      "languages": 6651,
      "tief": 6652,
      "ktions": 6653,
      "requires": 6654,
      "misch": 6655,
      "trust": 6656,
      "weeks": 6657,
      "campaign": 6658,
      "php": 6659,
      "mex": 6660,
      "gewesen": 6661,
      "accession": 6662,
      "komplett": 6663,
      "swiss": 6664,
      "beginnen": 6665,
      "doubt": 6666,
      "reduction": 6667,
      "verhindern": 6668,
      "pursu": 6669,
      "implemented": 6670,
      "ione": 6671,
      "conver": 6672,
      "iö": 6673,
      "discrimin": 6674,
      "berücksichtigt": 6675,
      "gren": 6676,
      "begrüßen": 6677,
      "dep": 6678,
      "restrict": 6679,
      "losen": 6680,
      "selection": 6681,
      "regelung": 6682,
      "abschluss": 6683,
      "kommunikation": 6684,
      "radi": 6685,
      "lag": 6686,
      "endlich": 6687,
      "solar": 6688,
      "cs": 6689,
      "38": 6690,
      "meaning": 6691,
      "probably": 6692,
      "kompon": 6693,
      "paläst": 6694,
      "congratulate": 6695,
      "zep": 6696,
      "wünsche": 6697,
      "remember": 6698,
      "improv": 6699,
      "sle": 6700,
      "anything": 6701,
      "uner": 6702,
      "forest": 6703,
      "ierende": 6704,
      "prime": 6705,
      "schaden": 6706,
      "changed": 6707,
      "anderem": 6708,
      "wahrscheinlich": 6709,
      "processing": 6710,
      "prozent": 6711,
      "zustand": 6712,
      "overall": 6713,
      "lit": 6714,
      "circum": 6715,
      "authority": 6716,
      "indest": 6717,
      "farmers": 6718,
      "crucial": 6719,
      "erfahrungen": 6720,
      "eleg": 6721,
      "sterne": 6722,
      "geschrieben": 6723,
      "schule": 6724,
      "gewiesen": 6725,
      "menschenrechts": 6726,
      "interested": 6727,
      "rauch": 6728,
      "iker": 6729,
      "verurs": 6730,
      "homepage": 6731,
      "abor": 6732,
      "instrumente": 6733,
      "hervorragen": 6734,
      "sammlung": 6735,
      "langt": 6736,
      "ständige": 6737,
      "cohesion": 6738,
      "pens": 6739,
      "core": 6740,
      "angelegenheiten": 6741,
      "niveau": 6742,
      "adr": 6743,
      "effizient": 6744,
      "wien": 6745,
      "relating": 6746,
      "fisheries": 6747,
      "zumindest": 6748,
      "meister": 6749,
      "positions": 6750,
      "versucht": 6751,
      "1996": 6752,
      "strategic": 6753,
      "alone": 6754,
      "critic": 6755,
      "kompeten": 6756,
      "jüng": 6757,
      "ktiv": 6758,
      "alität": 6759,
      "occup": 6760,
      "aries": 6761,
      "god": 6762,
      "historischen": 6763,
      "season": 6764,
      "siehe": 6765,
      "essere": 6766,
      "anerken": 6767,
      "mart": 6768,
      "anstreng": 6769,
      "spanien": 6770,
      "cry": 6771,
      "rechtsvorschriften": 6772,
      "zusätzlich": 6773,
      "honour": 6774,
      "mur": 6775,
      "üb": 6776,
      "ley": 6777,
      "valid": 6778,
      "überhaupt": 6779,
      "modernen": 6780,
      "vollständig": 6781,
      "faktor": 6782,
      "milliar": 6783,
      "tests": 6784,
      "kontext": 6785,
      "vereinbarung": 6786,
      "ai": 6787,
      "ischem": 6788,
      "vere": 6789,
      "yer": 6790,
      "plätze": 6791,
      "bote": 6792,
      "hersteller": 6793,
      "opening": 6794,
      "gesellschaften": 6795,
      "estic": 6796,
      "meld": 6797,
      "motion": 6798,
      "caused": 6799,
      "stehenden": 6800,
      "save": 6801,
      "korre": 6802,
      "scale": 6803,
      "pflicht": 6804,
      "adv": 6805,
      "nevertheless": 6806,
      "holen": 6807,
      "schützen": 6808,
      "fax": 6809,
      "erfüllen": 6810,
      "gehend": 6811,
      "senden": 6812,
      "außerhalb": 6813,
      "aktual": 6814,
      "budgetary": 6815,
      "candid": 6816,
      "letzte": 6817,
      "fields": 6818,
      "geschäft": 6819,
      "paz": 6820,
      "poten": 6821,
      "frankfur": 6822,
      "gg": 6823,
      "disast": 6824,
      "wild": 6825,
      "irak": 6826,
      "methods": 6827,
      "beschreibung": 6828,
      "kas": 6829,
      "usw": 6830,
      "flexible": 6831,
      "tip": 6832,
      "websites": 6833,
      "interpret": 6834,
      "incor": 6835,
      "medical": 6836,
      "datab": 6837,
      "inge": 6838,
      "zahlreichen": 6839,
      "erklärt": 6840,
      "menge": 6841,
      "extens": 6842,
      "sach": 6843,
      "accordance": 6844,
      "lou": 6845,
      "grunde": 6846,
      "accoun": 6847,
      "currency": 6848,
      "195": 6849,
      "electronic": 6850,
      "philosoph": 6851,
      "stabilität": 6852,
      "ties": 6853,
      "georg": 6854,
      "lter": 6855,
      "austausch": 6856,
      "intervention": 6857,
      "getroffen": 6858,
      "terrorismus": 6859,
      "reformen": 6860,
      "sper": 6861,
      "usually": 6862,
      "berichterstatterin": 6863,
      "businesses": 6864,
      "umb": 6865,
      "nar": 6866,
      "sens": 6867,
      "stets": 6868,
      "calls": 6869,
      "pak": 6870,
      "eigent": 6871,
      "gir": 6872,
      "mindes": 6873,
      "schwierigkeiten": 6874,
      "urban": 6875,
      "zahlt": 6876,
      "voice": 6877,
      "ausbildung": 6878,
      "kommissions": 6879,
      "emission": 6880,
      "serb": 6881,
      "extent": 6882,
      "utive": 6883,
      "ari": 6884,
      "wähl": 6885,
      "einfluss": 6886,
      "covered": 6887,
      "erwartet": 6888,
      "sql": 6889,
      "34": 6890,
      "ökon": 6891,
      "manufactur": 6892,
      "ense": 6893,
      "police": 6894,
      "powers": 6895,
      "tot": 6896,
      "began": 6897,
      "erinnern": 6898,
      "feature": 6899,
      "taus": 6900,
      "jeweiligen": 6901,
      "behinder": 6902,
      "orial": 6903,
      "chinese": 6904,
      "sl": 6905,
      "raph": 6906,
      "vergangenheit": 6907,
      "corporate": 6908,
      "extensive": 6909,
      "negative": 6910,
      "gebiete": 6911,
      "messe": 6912,
      "teilnehmer": 6913,
      "investig": 6914,
      "äre": 6915,
      "richtlinien": 6916,
      "herunter": 6917,
      "russian": 6918,
      "tut": 6919,
      "verpflichtet": 6920,
      "appreci": 6921,
      "john": 6922,
      "argument": 6923,
      "absolutely": 6924,
      "angelegenheit": 6925,
      "ott": 6926,
      "representatives": 6927,
      "nationale": 6928,
      "fällt": 6929,
      "astr": 6930,
      "sectors": 6931,
      "mitten": 6932,
      "students": 6933,
      "anwendungen": 6934,
      "versorgung": 6935,
      "command": 6936,
      "altungen": 6937,
      "technologien": 6938,
      "aver": 6939,
      "borders": 6940,
      "nato": 6941,
      "jam": 6942,
      "ud": 6943,
      "persönlichen": 6944,
      "separate": 6945,
      "zusetzen": 6946,
      "exerc": 6947,
      "trave": 6948,
      "sauna": 6949,
      "iling": 6950,
      "bib": 6951,
      "verpflichtungen": 6952,
      "losigkeit": 6953,
      "37": 6954,
      "http": 6955,
      "erlaubt": 6956,
      "surpr": 6957,
      "defence": 6958,
      "district": 6959,
      "cel": 6960,
      "vorgehen": 6961,
      "reag": 6962,
      "sell": 6963,
      "ausschließlich": 6964,
      "gekommen": 6965,
      "ilen": 6966,
      "delivery": 6967,
      "mögen": 6968,
      "descri": 6969,
      "öko": 6970,
      "geräte": 6971,
      "lier": 6972,
      "entgegen": 6973,
      "seines": 6974,
      "cele": 6975,
      "planning": 6976,
      "trying": 6977,
      "bitten": 6978,
      "lä": 6979,
      "bessere": 6980,
      "stät": 6981,
      "infrastruktur": 6982,
      "likely": 6983,
      "persönlich": 6984,
      "trächt": 6985,
      "abschließend": 6986,
      "eingesch": 6987,
      "bade": 6988,
      "leistet": 6989,
      "seven": 6990,
      "vielfalt": 6991,
      "critical": 6992,
      "hostels": 6993,
      "running": 6994,
      "taste": 6995,
      "leiden": 6996,
      "risiko": 6997,
      "straf": 6998,
      "iber": 6999,
      "mini": 7000,
      "tten": 7001,
      "genuine": 7002,
      "strom": 7003,
      "llo": 7004,
      "shower": 7005,
      "finanziellen": 7006,
      "ireland": 7007,
      "accepted": 7008,
      "gap": 7009,
      "gment": 7010,
      "amerikanischen": 7011,
      "reception": 7012,
      "salz": 7013,
      "barer": 7014,
      "genug": 7015,
      "banks": 7016,
      "ack": 7017,
      "electric": 7018,
      "raised": 7019,
      "käu": 7020,
      "erinner": 7021,
      "moral": 7022,
      "hood": 7023,
      "urgent": 7024,
      "operate": 7025,
      "provision": 7026,
      "brü": 7027,
      "beruf": 7028,
      "entschließungs": 7029,
      "fellow": 7030,
      "dach": 7031,
      "portion": 7032,
      "labor": 7033,
      "deep": 7034,
      "lly": 7035,
      "cycl": 7036,
      "erzeug": 7037,
      "provin": 7038,
      "simpl": 7039,
      "orte": 7040,
      "konsequ": 7041,
      "annahme": 7042,
      "parliamentary": 7043,
      "influence": 7044,
      "heutigen": 7045,
      "dlich": 7046,
      "attle": 7047,
      "automatisch": 7048,
      "qualitäts": 7049,
      "roma": 7050,
      "reichend": 7051,
      "berühm": 7052,
      "oli": 7053,
      "suitable": 7054,
      "administrative": 7055,
      "crime": 7056,
      "cze": 7057,
      "expected": 7058,
      "idee": 7059,
      "quant": 7060,
      "tab": 7061,
      "grundsätz": 7062,
      "herausforderungen": 7063,
      "luxem": 7064,
      "willkommen": 7065,
      "regen": 7066,
      "genutzt": 7067,
      "oly": 7068,
      "weiten": 7069,
      "ez": 7070,
      "ieg": 7071,
      "evening": 7072,
      "scope": 7073,
      "affected": 7074,
      "anteil": 7075,
      "privaten": 7076,
      "max": 7077,
      "comments": 7078,
      "laws": 7079,
      "worked": 7080,
      "rise": 7081,
      "demands": 7082,
      "osten": 7083,
      "nom": 7084,
      "edition": 7085,
      "libr": 7086,
      "genehm": 7087,
      "namely": 7088,
      "respekt": 7089,
      "bequ": 7090,
      "ehemal": 7091,
      "mont": 7092,
      "zukünft": 7093,
      "zahlung": 7094,
      "volk": 7095,
      "konflikt": 7096,
      "diskrimin": 7097,
      "nos": 7098,
      "declar": 7099,
      "ministers": 7100,
      "ros": 7101,
      "heard": 7102,
      "yourself": 7103,
      "führte": 7104,
      "founded": 7105,
      "falle": 7106,
      "jer": 7107,
      "terrasse": 7108,
      "verfassung": 7109,
      "involve": 7110,
      "mitteilung": 7111,
      "intended": 7112,
      "hinsicht": 7113,
      "filter": 7114,
      "spiele": 7115,
      "besucher": 7116,
      "beitritts": 7117,
      "viertel": 7118,
      "goal": 7119,
      "leaders": 7120,
      "übernehmen": 7121,
      "gor": 7122,
      "getragen": 7123,
      "erns": 7124,
      "inhalte": 7125,
      "mc": 7126,
      "talking": 7127,
      "ona": 7128,
      "automatically": 7129,
      "christian": 7130,
      "speziell": 7131,
      "ichen": 7132,
      "zusätzliche": 7133,
      "schä": 7134,
      "cards": 7135,
      "improved": 7136,
      "initiatives": 7137,
      "leitung": 7138,
      "entry": 7139,
      "ray": 7140,
      "erleben": 7141,
      "99": 7142,
      "wrong": 7143,
      "award": 7144,
      "costa": 7145,
      "izing": 7146,
      "caus": 7147,
      "elegant": 7148,
      "ferner": 7149,
      "beziehung": 7150,
      "selben": 7151,
      "families": 7152,
      "solidarität": 7153,
      "coffe": 7154,
      "arbeitsplätze": 7155,
      "benutzen": 7156,
      "furn": 7157,
      "wesentlichen": 7158,
      "laut": 7159,
      "sitting": 7160,
      "ighted": 7161,
      "zerstör": 7162,
      "gleiche": 7163,
      "altet": 7164,
      "alli": 7165,
      "chi": 7166,
      "aktuelle": 7167,
      "tie": 7168,
      "grad": 7169,
      "technische": 7170,
      "schem": 7171,
      "speaking": 7172,
      "circumst": 7173,
      "ifik": 7174,
      "effizienz": 7175,
      "chron": 7176,
      "kirche": 7177,
      "mainly": 7178,
      "kaum": 7179,
      "asia": 7180,
      "wash": 7181,
      "danach": 7182,
      "entschieden": 7183,
      "chtet": 7184,
      "hem": 7185,
      "forced": 7186,
      "celebr": 7187,
      "sensit": 7188,
      "fing": 7189,
      "attack": 7190,
      "expressed": 7191,
      "subs": 7192,
      "organization": 7193,
      "denk": 7194,
      "netzwerk": 7195,
      "sehens": 7196,
      "amerika": 7197,
      "bruch": 7198,
      "sorg": 7199,
      "vit": 7200,
      "stone": 7201,
      "vorteile": 7202,
      "verständnis": 7203,
      "gain": 7204,
      "tauch": 7205,
      "picture": 7206,
      "advanced": 7207,
      "fly": 7208,
      "approved": 7209,
      "slow": 7210,
      "dead": 7211,
      "sagt": 7212,
      "committed": 7213,
      "ids": 7214,
      "verur": 7215,
      "confidence": 7216,
      "preser": 7217,
      "anstrengungen": 7218,
      "ruption": 7219,
      "stated": 7220,
      "criminal": 7221,
      "afghanistan": 7222,
      "phil": 7223,
      "marks": 7224,
      "besonderen": 7225,
      "vorsitzen": 7226,
      "ützt": 7227,
      "zeitraum": 7228,
      "motiv": 7229,
      "anda": 7230,
      "darstellt": 7231,
      "bourg": 7232,
      "olymp": 7233,
      "camera": 7234,
      "inside": 7235,
      "store": 7236,
      "init": 7237,
      "champ": 7238,
      "proceed": 7239,
      "gig": 7240,
      "inspe": 7241,
      "engagement": 7242,
      "breite": 7243,
      "mitte": 7244,
      "rau": 7245,
      "fif": 7246,
      "friedens": 7247,
      "pin": 7248,
      "eindeutig": 7249,
      "größere": 7250,
      "bemerk": 7251,
      "reis": 7252,
      "methoden": 7253,
      "bequem": 7254,
      "trip": 7255,
      "fördert": 7256,
      "storage": 7257,
      "infrastructure": 7258,
      "anpass": 7259,
      "protected": 7260,
      "kund": 7261,
      "hagen": 7262,
      "ette": 7263,
      "ruhe": 7264,
      "dringend": 7265,
      "habit": 7266,
      "viet": 7267,
      "haupts": 7268,
      "bom": 7269,
      "landschaft": 7270,
      "specifically": 7271,
      "competitive": 7272,
      "milliarden": 7273,
      "igungen": 7274,
      "sold": 7275,
      "respond": 7276,
      "kompromiss": 7277,
      "benutzt": 7278,
      "getting": 7279,
      "understanding": 7280,
      "möglicherweise": 7281,
      "einkauf": 7282,
      "finde": 7283,
      "eingehen": 7284,
      "entertain": 7285,
      "1990": 7286,
      "ökonom": 7287,
      "label": 7288,
      "mindestens": 7289,
      "ams": 7290,
      "transparent": 7291,
      "hinweisen": 7292,
      "refu": 7293,
      "wil": 7294,
      "cab": 7295,
      "pfe": 7296,
      "structures": 7297,
      "98": 7298,
      "competen": 7299,
      "functions": 7300,
      "mio": 7301,
      "oth": 7302,
      "lobby": 7303,
      "unbedingt": 7304,
      "schuld": 7305,
      "sources": 7306,
      "95": 7307,
      "ruf": 7308,
      "leav": 7309,
      "supports": 7310,
      "convenient": 7311,
      "reduced": 7312,
      "finn": 7313,
      "grenze": 7314,
      "pleasant": 7315,
      "alog": 7316,
      "ran": 7317,
      "visual": 7318,
      "promotion": 7319,
      "bridge": 7320,
      "bele": 7321,
      "nahr": 7322,
      "deckt": 7323,
      "fanta": 7324,
      "kept": 7325,
      "conclusion": 7326,
      "ador": 7327,
      "galler": 7328,
      "zustimmung": 7329,
      "ws": 7330,
      "circumstances": 7331,
      "blin": 7332,
      "participation": 7333,
      "verfügbar": 7334,
      "bene": 7335,
      "assessment": 7336,
      "entspricht": 7337,
      "hardware": 7338,
      "wonderful": 7339,
      "beiträ": 7340,
      "rome": 7341,
      "powerful": 7342,
      "detailed": 7343,
      "route": 7344,
      "opened": 7345,
      "spacious": 7346,
      "unemployment": 7347,
      "beds": 7348,
      "64": 7349,
      "gestellten": 7350,
      "hochwert": 7351,
      "increasingly": 7352,
      "beschlossen": 7353,
      "managed": 7354,
      "respective": 7355,
      "houses": 7356,
      "paralle": 7357,
      "networks": 7358,
      "expand": 7359,
      "sul": 7360,
      "anerkennung": 7361,
      "ivers": 7362,
      "währungs": 7363,
      "gegrün": 7364,
      "sobald": 7365,
      "glas": 7366,
      "ensuring": 7367,
      "magaz": 7368,
      "whom": 7369,
      "begriff": 7370,
      "kul": 7371,
      "hner": 7372,
      "dos": 7373,
      "animals": 7374,
      "luxur": 7375,
      "attempt": 7376,
      "studie": 7377,
      "führten": 7378,
      "überzeugt": 7379,
      "reforms": 7380,
      "räume": 7381,
      "nissen": 7382,
      "hoffen": 7383,
      "genannt": 7384,
      "dritten": 7385,
      "ielle": 7386,
      "castle": 7387,
      "presse": 7388,
      "beauty": 7389,
      "wea": 7390,
      "paragraph": 7391,
      "translation": 7392,
      "czech": 7393,
      "album": 7394,
      "dé": 7395,
      "plants": 7396,
      "autor": 7397,
      "schlaf": 7398,
      "formular": 7399,
      "satisf": 7400,
      "balan": 7401,
      "defined": 7402,
      "weist": 7403,
      "quellen": 7404,
      "monat": 7405,
      "vorgelegt": 7406,
      "priorities": 7407,
      "gemüt": 7408,
      "durchführung": 7409,
      "währung": 7410,
      "stände": 7411,
      "schau": 7412,
      "folger": 7413,
      "spring": 7414,
      "director": 7415,
      "snow": 7416,
      "entwickel": 7417,
      "programs": 7418,
      "says": 7419,
      "versuch": 7420,
      "victims": 7421,
      "foll": 7422,
      "flash": 7423,
      "introduced": 7424,
      "belar": 7425,
      "exhibition": 7426,
      "resist": 7427,
      "immigration": 7428,
      "2020": 7429,
      "hauses": 7430,
      "monate": 7431,
      "contribute": 7432,
      "estate": 7433,
      "stärken": 7434,
      "serie": 7435,
      "initiativen": 7436,
      "erwähnt": 7437,
      "schreiten": 7438,
      "barr": 7439,
      "niemand": 7440,
      "listed": 7441,
      "wing": 7442,
      "learning": 7443,
      "sicherlich": 7444,
      "gefühl": 7445,
      "zuverläss": 7446,
      "lounge": 7447,
      "liefert": 7448,
      "angegeben": 7449,
      "entsprechende": 7450,
      "erstellen": 7451,
      "relative": 7452,
      "marken": 7453,
      "berücksichtigen": 7454,
      "finance": 7455,
      "prüfen": 7456,
      "frankfurt": 7457,
      "coffee": 7458,
      "guidelines": 7459,
      "izes": 7460,
      "hintergrund": 7461,
      "tabled": 7462,
      "dram": 7463,
      "vorteil": 7464,
      "polize": 7465,
      "introduction": 7466,
      "smoking": 7467,
      "cers": 7468,
      "interface": 7469,
      "pdf": 7470,
      "zig": 7471,
      "angaben": 7472,
      "willing": 7473,
      "austral": 7474,
      "andererseits": 7475,
      "1995": 7476,
      "therap": 7477,
      "beha": 7478,
      "gezeigt": 7479,
      "umen": 7480,
      "vorbereit": 7481,
      "navig": 7482,
      "votes": 7483,
      "ständen": 7484,
      "nachfolgen": 7485,
      "bö": 7486,
      "thousands": 7487,
      "beschäftigungs": 7488,
      "manner": 7489,
      "popul": 7490,
      "klang": 7491,
      "entweder": 7492,
      "systemen": 7493,
      "palestin": 7494,
      "crete": 7495,
      "trotzdem": 7496,
      "stattung": 7497,
      "played": 7498,
      "belieb": 7499,
      "visa": 7500,
      "unterschiedlichen": 7501,
      "mittag": 7502,
      "dedic": 7503,
      "effectively": 7504,
      "exactly": 7505,
      "communications": 7506,
      "institute": 7507,
      "anbie": 7508,
      "larger": 7509,
      "gradu": 7510,
      "warten": 7511,
      "linked": 7512,
      "dia": 7513,
      "suppl": 7514,
      "stech": 7515,
      "vien": 7516,
      "studies": 7517,
      "zuletzt": 7518,
      "precisely": 7519,
      "finanzielle": 7520,
      "mittelmeer": 7521,
      "confirm": 7522,
      "pendence": 7523,
      "öffnen": 7524,
      "northern": 7525,
      "anyone": 7526,
      "mehreren": 7527,
      "angebote": 7528,
      "farben": 7529,
      "cm": 7530,
      "generally": 7531,
      "selected": 7532,
      "44": 7533,
      "artigen": 7534,
      "animal": 7535,
      "zeugen": 7536,
      "comment": 7537,
      "felt": 7538,
      "index": 7539,
      "agentur": 7540,
      "geeignet": 7541,
      "imper": 7542,
      "verwaltungs": 7543,
      "tennis": 7544,
      "imag": 7545,
      "tourismus": 7546,
      "duty": 7547,
      "seek": 7548,
      "cuis": 7549,
      "heiz": 7550,
      "bedro": 7551,
      "schwierig": 7552,
      "iede": 7553,
      "meetings": 7554,
      "py": 7555,
      "madr": 7556,
      "fenster": 7557,
      "iser": 7558,
      "sichten": 7559,
      "08": 7560,
      "mik": 7561,
      "gerät": 7562,
      "lizenz": 7563,
      "zentrale": 7564,
      "erkannt": 7565,
      "eindruck": 7566,
      "purposes": 7567,
      "vin": 7568,
      "earlier": 7569,
      "hafen": 7570,
      "würd": 7571,
      "india": 7572,
      "discussions": 7573,
      "gelöst": 7574,
      "enterprises": 7575,
      "gb": 7576,
      "transform": 7577,
      "nütz": 7578,
      "methode": 7579,
      "incl": 7580,
      "ticket": 7581,
      "raft": 7582,
      "gehalten": 7583,
      "ktiven": 7584,
      "akzeptieren": 7585,
      "immen": 7586,
      "referred": 7587,
      "weite": 7588,
      "prison": 7589,
      "experts": 7590,
      "istet": 7591,
      "lieben": 7592,
      "rufen": 7593,
      "bestimmt": 7594,
      "none": 7595,
      "ilität": 7596,
      "akte": 7597,
      "prüfung": 7598,
      "jet": 7599,
      "angesprochen": 7600,
      "55": 7601,
      "spunkt": 7602,
      "developments": 7603,
      "unit": 7604,
      "kopf": 7605,
      "tren": 7606,
      "appar": 7607,
      "phr": 7608,
      "weap": 7609,
      "february": 7610,
      "eingerichtet": 7611,
      "zerland": 7612,
      "jene": 7613,
      "bush": 7614,
      "titel": 7615,
      "darunter": 7616,
      "unabhängig": 7617,
      "zin": 7618,
      "39": 7619,
      "sad": 7620,
      "09": 7621,
      "entstehen": 7622,
      "aimed": 7623,
      "tan": 7624,
      "switzerland": 7625,
      "bewertung": 7626,
      "kapaz": 7627,
      "aded": 7628,
      "uals": 7629,
      "ernst": 7630,
      "globalen": 7631,
      "kandid": 7632,
      "playing": 7633,
      "verbin": 7634,
      "pair": 7635,
      "arischen": 7636,
      "tätigkeit": 7637,
      "grade": 7638,
      "becoming": 7639,
      "books": 7640,
      "continent": 7641,
      "adequate": 7642,
      "britann": 7643,
      "mono": 7644,
      "purchase": 7645,
      "telephone": 7646,
      "theater": 7647,
      "gewinn": 7648,
      "discussed": 7649,
      "actual": 7650,
      "wält": 7651,
      "represents": 7652,
      "reserve": 7653,
      "diag": 7654,
      "kingdom": 7655,
      "tätig": 7656,
      "rüst": 7657,
      "pakistan": 7658,
      "itung": 7659,
      "kommenden": 7660,
      "refuge": 7661,
      "grundsatz": 7662,
      "cot": 7663,
      "bestehenden": 7664,
      "sicherzustellen": 7665,
      "valley": 7666,
      "wants": 7667,
      "fixed": 7668,
      "engineering": 7669,
      "components": 7670,
      "werten": 7671,
      "größe": 7672,
      "begrün": 7673,
      "ifying": 7674,
      "griechen": 7675,
      "metres": 7676,
      "risks": 7677,
      "vertrau": 7678,
      "alloc": 7679,
      "cars": 7680,
      "unless": 7681,
      "ral": 7682,
      "lock": 7683,
      "erzielt": 7684,
      "ais": 7685,
      "ambit": 7686,
      "istics": 7687,
      "turk": 7688,
      "buildings": 7689,
      "veget": 7690,
      "vereinfach": 7691,
      "subsidiar": 7692,
      "besit": 7693,
      "connected": 7694,
      "pul": 7695,
      "manch": 7696,
      "partnerschaft": 7697,
      "convinc": 7698,
      "veränderungen": 7699,
      "diesel": 7700,
      "welcher": 7701,
      "voller": 7702,
      "themat": 7703,
      "memory": 7704,
      "anderes": 7705,
      "maschine": 7706,
      "estim": 7707,
      "diversity": 7708,
      "dagegen": 7709,
      "gerichtshof": 7710,
      "notwendigen": 7711,
      "obviously": 7712,
      "ades": 7713,
      "trading": 7714,
      "kritik": 7715,
      "cuisine": 7716,
      "pm": 7717,
      "supporting": 7718,
      "advis": 7719,
      "kindern": 7720,
      "improving": 7721,
      "bla": 7722,
      "graphic": 7723,
      "typical": 7724,
      "governance": 7725,
      "facing": 7726,
      "hands": 7727,
      "ivity": 7728,
      "informieren": 7729,
      "pft": 7730,
      "degree": 7731,
      "match": 7732,
      "geändert": 7733,
      "gott": 7734,
      "mack": 7735,
      "speech": 7736,
      "saw": 7737,
      "iano": 7738,
      "führungs": 7739,
      "contr": 7740,
      "discrimination": 7741,
      "bure": 7742,
      "klare": 7743,
      "pfer": 7744,
      "plor": 7745,
      "subje": 7746,
      "jederzeit": 7747,
      "tze": 7748,
      "weight": 7749,
      "unterkategorien": 7750,
      "vermeiden": 7751,
      "gegenwärtig": 7752,
      "sämtliche": 7753,
      "pati": 7754,
      "erfüllt": 7755,
      "items": 7756,
      "rid": 7757,
      "dish": 7758,
      "chang": 7759,
      "65": 7760,
      "sse": 7761,
      "lieb": 7762,
      "festgelegt": 7763,
      "küste": 7764,
      "ergreifen": 7765,
      "wogen": 7766,
      "sized": 7767,
      "zimmern": 7768,
      "ios": 7769,
      "gutes": 7770,
      "palace": 7771,
      "closely": 7772,
      "accur": 7773,
      "mountains": 7774,
      "bereitet": 7775,
      "umgesetzt": 7776,
      "bell": 7777,
      "49": 7778,
      "compat": 7779,
      "05": 7780,
      "southern": 7781,
      "bewegung": 7782,
      "vat": 7783,
      "residence": 7784,
      "rasch": 7785,
      "vereinten": 7786,
      "database": 7787,
      "wom": 7788,
      "valu": 7789,
      "charter": 7790,
      "wettbewerbsfähigkeit": 7791,
      "lastung": 7792,
      "machines": 7793,
      "income": 7794,
      "islands": 7795,
      "railway": 7796,
      "modu": 7797,
      "regelungen": 7798,
      "ifizierung": 7799,
      "followed": 7800,
      "sonnen": 7801,
      "reden": 7802,
      "coordination": 7803,
      "teilweise": 7804,
      "elimin": 7805,
      "haften": 7806,
      "geschehen": 7807,
      "rezept": 7808,
      "toler": 7809,
      "hair": 7810,
      "considerable": 7811,
      "co2": 7812,
      "obst": 7813,
      "gegenseit": 7814,
      "idet": 7815,
      "immobilien": 7816,
      "problemen": 7817,
      "fortschritt": 7818,
      "beseit": 7819,
      "iron": 7820,
      "representative": 7821,
      "hie": 7822,
      "spekt": 7823,
      "07": 7824,
      "jung": 7825,
      "hafte": 7826,
      "hill": 7827,
      "ré": 7828,
      "berge": 7829,
      "überwachung": 7830,
      "bug": 7831,
      "glass": 7832,
      "3d": 7833,
      "description": 7834,
      "klasse": 7835,
      "gewinnen": 7836,
      "komp": 7837,
      "bureau": 7838,
      "här": 7839,
      "seh": 7840,
      "properly": 7841,
      "permanent": 7842,
      "except": 7843,
      "leiten": 7844,
      "thaf": 7845,
      "names": 7846,
      "factory": 7847,
      "audit": 7848,
      "strict": 7849,
      "competitiveness": 7850,
      "owned": 7851,
      "jeweils": 7852,
      "feier": 7853,
      "traum": 7854,
      "webseite": 7855,
      "thinking": 7856,
      "kunde": 7857,
      "flächen": 7858,
      "videos": 7859,
      "berech": 7860,
      "drogen": 7861,
      "universal": 7862,
      "sale": 7863,
      "flücht": 7864,
      "reje": 7865,
      "owner": 7866,
      "platform": 7867,
      "dun": 7868,
      "chamber": 7869,
      "abgeordnete": 7870,
      "illeg": 7871,
      "saint": 7872,
      "executive": 7873,
      "übernachten": 7874,
      "financing": 7875,
      "übereinkommen": 7876,
      "gin": 7877,
      "hosp": 7878,
      "zuvor": 7879,
      "wohnung": 7880,
      "spielt": 7881,
      "wait": 7882,
      "story": 7883,
      "sser": 7884,
      "incorpor": 7885,
      "eisen": 7886,
      "gewün": 7887,
      "ichert": 7888,
      "combat": 7889,
      "sonn": 7890,
      "belong": 7891,
      "brussel": 7892,
      "täglich": 7893,
      "presence": 7894,
      "47": 7895,
      "03": 7896,
      "tsche": 7897,
      "amente": 7898,
      "average": 7899,
      "eingeschrän": 7900,
      "stattfinden": 7901,
      "staatlichen": 7902,
      "greece": 7903,
      "steuern": 7904,
      "pä": 7905,
      "itate": 7906,
      "entwicklungen": 7907,
      "intelle": 7908,
      "tags": 7909,
      "möglichst": 7910,
      "mögliche": 7911,
      "stal": 7912,
      "benach": 7913,
      "cis": 7914,
      "teams": 7915,
      "ufen": 7916,
      "brussels": 7917,
      "drin": 7918,
      "belarus": 7919,
      "dritte": 7920,
      "ordinary": 7921,
      "fleisch": 7922,
      "texte": 7923,
      "iler": 7924,
      "angezeigt": 7925,
      "haut": 7926,
      "gelangen": 7927,
      "schrän": 7928,
      "gency": 7929,
      "television": 7930,
      "einigung": 7931,
      "bonus": 7932,
      "baby": 7933,
      "erzielen": 7934,
      "arrival": 7935,
      "600": 7936,
      "entit": 7937,
      "tisch": 7938,
      "gave": 7939,
      "kran": 7940,
      "nachfolgend": 7941,
      "tho": 7942,
      "weak": 7943,
      "bound": 7944,
      "wollte": 7945,
      "isierten": 7946,
      "hion": 7947,
      "uting": 7948,
      "deswegen": 7949,
      "drawn": 7950,
      "sets": 7951,
      "ausdrücklich": 7952,
      "richtet": 7953,
      "assemb": 7954,
      "allgemein": 7955,
      "februar": 7956,
      "autom": 7957,
      "absatz": 7958,
      "voc": 7959,
      "figuration": 7960,
      "erfolgen": 7961,
      "adoption": 7962,
      "theat": 7963,
      "dealing": 7964,
      "architektur": 7965,
      "tickets": 7966,
      "funktioniert": 7967,
      "courses": 7968,
      "ancient": 7969,
      "grant": 7970,
      "architecture": 7971,
      "reservation": 7972,
      "armen": 7973,
      "magn": 7974,
      "vict": 7975,
      "initial": 7976,
      "schir": 7977,
      "betroffenen": 7978,
      "cool": 7979,
      "lement": 7980,
      "vehicles": 7981,
      "martin": 7982,
      "zählen": 7983,
      "religion": 7984,
      "jemand": 7985,
      "erstellt": 7986,
      "verfolgen": 7987,
      "remind": 7988,
      "befu": 7989,
      "ata": 7990,
      "entirely": 7991,
      "offizie": 7992,
      "recognis": 7993,
      "verlassen": 7994,
      "politics": 7995,
      "ideen": 7996,
      "hnung": 7997,
      "bach": 7998,
      "abe": 7999,
      "fron": 8000,
      "qualit": 8001,
      "andal": 8002,
      "wären": 8003,
      "verbessert": 8004,
      "erneuer": 8005,
      "tack": 8006,
      "ays": 8007,
      "poland": 8008,
      "öm": 8009,
      "mitgliedstaat": 8010,
      "beachten": 8011,
      "korea": 8012,
      "städte": 8013,
      "bras": 8014,
      "leng": 8015,
      "elegan": 8016,
      "erhöhen": 8017,
      "geräum": 8018,
      "approxim": 8019,
      "entschlossen": 8020,
      "wohner": 8021,
      "atoren": 8022,
      "cos": 8023,
      "bodies": 8024,
      "relate": 8025,
      "flexibility": 8026,
      "icial": 8027,
      "proof": 8028,
      "exter": 8029,
      "gründe": 8030,
      "scher": 8031,
      "beschluss": 8032,
      "insurance": 8033,
      "glaub": 8034,
      "absolut": 8035,
      "dium": 8036,
      "icts": 8037,
      "anne": 8038,
      "peaceful": 8039,
      "manchmal": 8040,
      "signed": 8041,
      "establishment": 8042,
      "mutter": 8043,
      "polen": 8044,
      "reasonable": 8045,
      "06": 8046,
      "endor": 8047,
      "suites": 8048,
      "politischer": 8049,
      "alliance": 8050,
      "madrid": 8051,
      "ox": 8052,
      "royal": 8053,
      "practices": 8054,
      "approv": 8055,
      "ecu": 8056,
      "thor": 8057,
      "ned": 8058,
      "richtigen": 8059,
      "compli": 8060,
      "allgemeine": 8061,
      "ften": 8062,
      "neither": 8063,
      "prozesses": 8064,
      "lokalen": 8065,
      "gesprä": 8066,
      "debt": 8067,
      "beitritt": 8068,
      "difficulties": 8069,
      "informed": 8070,
      "numbers": 8071,
      "consideration": 8072,
      "näher": 8073,
      "800": 8074,
      "betonen": 8075,
      "observ": 8076,
      "stream": 8077,
      "models": 8078,
      "difference": 8079,
      "experienced": 8080,
      "geschwind": 8081,
      "rounded": 8082,
      "hrt": 8083,
      "ilfe": 8084,
      "beihilfen": 8085,
      "veranstaltungen": 8086,
      "herit": 8087,
      "aspekt": 8088,
      "mangel": 8089,
      "sah": 8090,
      "paint": 8091,
      "html": 8092,
      "maßen": 8093,
      "ifen": 8094,
      "orders": 8095,
      "prioritäten": 8096,
      "percent": 8097,
      "funktionieren": 8098,
      "justiz": 8099,
      "häuser": 8100,
      "told": 8101,
      "großbritann": 8102,
      "streit": 8103,
      "positiv": 8104,
      "wäl": 8105,
      "membership": 8106,
      "apparte": 8107,
      "kräft": 8108,
      "statements": 8109,
      "umin": 8110,
      "aussicht": 8111,
      "module": 8112,
      "luxury": 8113,
      "bol": 8114,
      "instru": 8115,
      "abilities": 8116,
      "domestic": 8117,
      "verfahrens": 8118,
      "pir": 8119,
      "pest": 8120,
      "sli": 8121,
      "normen": 8122,
      "failure": 8123,
      "nutzer": 8124,
      "verpflichtung": 8125,
      "darstellen": 8126,
      "idents": 8127,
      "licherweise": 8128,
      "steel": 8129,
      "elemente": 8130,
      "farm": 8131,
      "father": 8132,
      "fare": 8133,
      "applies": 8134,
      "leich": 8135,
      "einiger": 8136,
      "papier": 8137,
      "photos": 8138,
      "profitieren": 8139,
      "nennen": 8140,
      "vielfält": 8141,
      "2011": 8142,
      "defic": 8143,
      "eads": 8144,
      "cold": 8145,
      "umfas": 8146,
      "gefordert": 8147,
      "zugän": 8148,
      "proportion": 8149,
      "profess": 8150,
      "idung": 8151,
      "pure": 8152,
      "alex": 8153,
      "uno": 8154,
      "figure": 8155,
      "orten": 8156,
      "santa": 8157,
      "sauber": 8158,
      "älter": 8159,
      "konkrete": 8160,
      "kyo": 8161,
      "aufsicht": 8162,
      "kostenlos": 8163,
      "beteiligung": 8164,
      "attach": 8165,
      "nearby": 8166,
      "studien": 8167,
      "erleb": 8168,
      "delay": 8169,
      "hospital": 8170,
      "icks": 8171,
      "brüssel": 8172,
      "seeing": 8173,
      "wenigen": 8174,
      "quer": 8175,
      "herzlich": 8176,
      "humanitarian": 8177,
      "background": 8178,
      "dich": 8179,
      "cash": 8180,
      "calling": 8181,
      "fat": 8182,
      "platt": 8183,
      "programmen": 8184,
      "substant": 8185,
      "gestalten": 8186,
      "überprüfen": 8187,
      "inary": 8188,
      "promoting": 8189,
      "confir": 8190,
      "bucht": 8191,
      "fear": 8192,
      "kulturellen": 8193,
      "daraus": 8194,
      "academ": 8195,
      "dum": 8196,
      "appears": 8197,
      "46": 8198,
      "attractive": 8199,
      "tschech": 8200,
      "muslim": 8201,
      "yester": 8202,
      "becomes": 8203,
      "autonom": 8204,
      "aspect": 8205,
      "gegründet": 8206,
      "gelassen": 8207,
      "winn": 8208,
      "portal": 8209,
      "horiz": 8210,
      "impress": 8211,
      "perspective": 8212,
      "norm": 8213,
      "pum": 8214,
      "entspannen": 8215,
      "veröffentlicht": 8216,
      "pflanzen": 8217,
      "collabor": 8218,
      "02": 8219,
      "privacy": 8220,
      "verloren": 8221,
      "highlight": 8222,
      "durchaus": 8223,
      "instance": 8224,
      "hilfs": 8225,
      "nächste": 8226,
      "soweit": 8227,
      "iking": 8228,
      "geheim": 8229,
      "benötigt": 8230,
      "supp": 8231,
      "appoint": 8232,
      "wanderung": 8233,
      "phar": 8234,
      "zugleich": 8235,
      "dee": 8236,
      "packages": 8237,
      "vorbe": 8238,
      "höchst": 8239,
      "fashion": 8240,
      "peter": 8241,
      "democrats": 8242,
      "schwä": 8243,
      "spread": 8244,
      "aims": 8245,
      "shared": 8246,
      "verehr": 8247,
      "usb": 8248,
      "thes": 8249,
      "bedenken": 8250,
      "concrete": 8251,
      "myself": 8252,
      "jack": 8253,
      "übertragen": 8254,
      "extrem": 8255,
      "patienten": 8256,
      "untersche": 8257,
      "ael": 8258,
      "freue": 8259,
      "surve": 8260,
      "gewährleistet": 8261,
      "defend": 8262,
      "soli": 8263,
      "conserv": 8264,
      "bedürfnisse": 8265,
      "universität": 8266,
      "starke": 8267,
      "mitgliedern": 8268,
      "unterschiedliche": 8269,
      "arbeitslosigkeit": 8270,
      "issen": 8271,
      "offensichtlich": 8272,
      "easier": 8273,
      "desig": 8274,
      "spät": 8275,
      "miß": 8276,
      "partnern": 8277,
      "planung": 8278,
      "abgeschlossen": 8279,
      "explor": 8280,
      "datenbank": 8281,
      "propose": 8282,
      "genet": 8283,
      "yesterday": 8284,
      "himself": 8285,
      "advance": 8286,
      "onto": 8287,
      "referend": 8288,
      "ibility": 8289,
      "erklären": 8290,
      "ausgang": 8291,
      "department": 8292,
      "sicherung": 8293,
      "migration": 8294,
      "migr": 8295,
      "delic": 8296,
      "fotos": 8297,
      "waiting": 8298,
      "associated": 8299,
      "betten": 8300,
      "acknow": 8301,
      "planet": 8302,
      "availability": 8303,
      "erscheint": 8304,
      "entdeck": 8305,
      "keeping": 8306,
      "dal": 8307,
      "gender": 8308,
      "beaches": 8309,
      "strukturen": 8310,
      "implementing": 8311,
      "improvement": 8312,
      "ernsthaf": 8313,
      "changing": 8314,
      "pour": 8315,
      "behörde": 8316,
      "classic": 8317,
      "würdigkeiten": 8318,
      "riv": 8319,
      "qualifiz": 8320,
      "holt": 8321,
      "kreis": 8322,
      "herausforderung": 8323,
      "seriously": 8324,
      "97": 8325,
      "achtet": 8326,
      "producers": 8327,
      "gebrauch": 8328,
      "widers": 8329,
      "zoll": 8330,
      "betrachtet": 8331,
      "gestaltung": 8332,
      "grenzüber": 8333,
      "genü": 8334,
      "reducing": 8335,
      "emot": 8336,
      "gau": 8337,
      "überall": 8338,
      "flight": 8339,
      "ido": 8340,
      "zählt": 8341,
      "continued": 8342,
      "königreich": 8343,
      "gelungen": 8344,
      "lesung": 8345,
      "combination": 8346,
      "42": 8347,
      "atischen": 8348,
      "differences": 8349,
      "ausgewogen": 8350,
      "konzentrieren": 8351,
      "fruit": 8352,
      "problemat": 8353,
      "apo": 8354,
      "recognition": 8355,
      "immediate": 8356,
      "thy": 8357,
      "registered": 8358,
      "stren": 8359,
      "authent": 8360,
      "behavi": 8361,
      "gezogen": 8362,
      "einhaltung": 8363,
      "mother": 8364,
      "carefully": 8365,
      "jahrhunderts": 8366,
      "stellungnahme": 8367,
      "bac": 8368,
      "released": 8369,
      "einkommen": 8370,
      "javas": 8371,
      "breiten": 8372,
      "write": 8373,
      "angehör": 8374,
      "fulfil": 8375,
      "threat": 8376,
      "spent": 8377,
      "freut": 8378,
      "parks": 8379,
      "claims": 8380,
      "bing": 8381,
      "französischen": 8382,
      "stunde": 8383,
      "agencies": 8384,
      "irish": 8385,
      "stol": 8386,
      "clubs": 8387,
      "massage": 8388,
      "bike": 8389,
      "inspir": 8390,
      "trek": 8391,
      "flüge": 8392,
      "sehenswürdigkeiten": 8393,
      "beam": 8394,
      "ships": 8395,
      "devices": 8396,
      "eli": 8397,
      "ünft": 8398,
      "1994": 8399,
      "charged": 8400,
      "englisch": 8401,
      "device": 8402,
      "diskutieren": 8403,
      "nern": 8404,
      "ave": 8405,
      "miteinander": 8406,
      "assembly": 8407,
      "96": 8408,
      "meist": 8409,
      "ahead": 8410,
      "barro": 8411,
      "erte": 8412,
      "holidays": 8413,
      "jungen": 8414,
      "kunfts": 8415,
      "notes": 8416,
      "phrase": 8417,
      "ökolog": 8418,
      "menü": 8419,
      "javascript": 8420,
      "balanced": 8421,
      "ito": 8422,
      "acts": 8423,
      "evidence": 8424,
      "schengen": 8425,
      "library": 8426,
      "impossible": 8427,
      "gesetzgebung": 8428,
      "mächt": 8429,
      "etze": 8430,
      "punkten": 8431,
      "ucht": 8432,
      "bereiten": 8433,
      "maße": 8434,
      "wers": 8435,
      "newsletter": 8436,
      "kamera": 8437,
      "jährigen": 8438,
      "alban": 8439,
      "entertainment": 8440,
      "isierte": 8441,
      "noon": 8442,
      "geleitet": 8443,
      "territory": 8444,
      "fassungs": 8445,
      "budgets": 8446,
      "hauptstadt": 8447,
      "african": 8448,
      "transition": 8449,
      "combined": 8450,
      "zau": 8451,
      "gross": 8452,
      "damals": 8453,
      "iente": 8454,
      "vernünft": 8455,
      "title": 8456,
      "lord": 8457,
      "hamburg": 8458,
      "religious": 8459,
      "spezielle": 8460,
      "happened": 8461,
      "entdecken": 8462,
      "passt": 8463,
      "rumän": 8464,
      "steiger": 8465,
      "dangerous": 8466,
      "beant": 8467,
      "copyright": 8468,
      "umfasst": 8469,
      "occasion": 8470,
      "compared": 8471,
      "constitutional": 8472,
      "auseinander": 8473,
      "wirkt": 8474,
      "goals": 8475,
      "mittels": 8476,
      "geleistet": 8477,
      "holding": 8478,
      "nehm": 8479,
      "util": 8480,
      "endgült": 8481,
      "surface": 8482,
      "kö": 8483,
      "regionalen": 8484,
      "folgende": 8485,
      "cycle": 8486,
      "metal": 8487,
      "jac": 8488,
      "forth": 8489,
      "vak": 8490,
      "moving": 8491,
      "communities": 8492,
      "vollkommen": 8493,
      "schulen": 8494,
      "ausstattung": 8495,
      "iii": 8496,
      "lor": 8497,
      "sensitive": 8498,
      "relaxing": 8499,
      "worfen": 8500,
      "announced": 8501,
      "advertising": 8502,
      "domain": 8503,
      "condem": 8504,
      "dp": 8505,
      "relativ": 8506,
      "demokratische": 8507,
      "kungen": 8508,
      "ließen": 8509,
      "truly": 8510,
      "biblio": 8511,
      "skills": 8512,
      "heimat": 8513,
      "ology": 8514,
      "merken": 8515,
      "governmental": 8516,
      "betreu": 8517,
      "passed": 8518,
      "tasks": 8519,
      "guarantees": 8520,
      "nahrungs": 8521,
      "exklus": 8522,
      "garantiert": 8523,
      "sac": 8524,
      "ae": 8525,
      "enhan": 8526,
      "introduce": 8527,
      "notice": 8528,
      "verbindungen": 8529,
      "chancen": 8530,
      "fem": 8531,
      "türk": 8532,
      "aqu": 8533,
      "excess": 8534,
      "testing": 8535,
      "tail": 8536,
      "described": 8537,
      "schäden": 8538,
      "ée": 8539,
      "ategory": 8540,
      "figures": 8541,
      "geograph": 8542,
      "deposit": 8543,
      "het": 8544,
      "mainten": 8545,
      "citizen": 8546,
      "category": 8547,
      "male": 8548,
      "naturally": 8549,
      "kompliz": 8550,
      "gelegten": 8551,
      "zing": 8552,
      "führenden": 8553,
      "washing": 8554,
      "kommunikations": 8555,
      "icians": 8556,
      "04": 8557,
      "nd": 8558,
      "feststellen": 8559,
      "kaufen": 8560,
      "pain": 8561,
      "multil": 8562,
      "kg": 8563,
      "industries": 8564,
      "fans": 8565,
      "artists": 8566,
      "rett": 8567,
      "england": 8568,
      "einfache": 8569,
      "marked": 8570,
      "license": 8571,
      "erforderlichen": 8572,
      "advent": 8573,
      "lub": 8574,
      "multiple": 8575,
      "unternehmer": 8576,
      "gedanken": 8577,
      "häl": 8578,
      "pill": 8579,
      "evol": 8580,
      "teen": 8581,
      "landwir": 8582,
      "adapt": 8583,
      "possibilities": 8584,
      "wishes": 8585,
      "allowing": 8586,
      "equality": 8587,
      "meters": 8588,
      "vous": 8589,
      "haltet": 8590,
      "reliable": 8591,
      "willen": 8592,
      "wealth": 8593,
      "itete": 8594,
      "vienna": 8595,
      "ickt": 8596,
      "materialien": 8597,
      "großes": 8598,
      "vielzahl": 8599,
      "factor": 8600,
      "präz": 8601,
      "behaup": 8602,
      "extended": 8603,
      "versions": 8604,
      "resto": 8605,
      "prozesse": 8606,
      "tete": 8607,
      "youth": 8608,
      "kampag": 8609,
      "pse": 8610,
      "massive": 8611,
      "raucher": 8612,
      "empfehlen": 8613,
      "verfolgt": 8614,
      "appeal": 8615,
      "ißen": 8616,
      "concentr": 8617,
      "frag": 8618,
      "ards": 8619,
      "westen": 8620,
      "barroso": 8621,
      "datenschutz": 8622,
      "intensive": 8623,
      "hone": 8624,
      "asylum": 8625,
      "installed": 8626,
      "optimal": 8627,
      "turkish": 8628,
      "speicher": 8629,
      "michael": 8630,
      "großbritannien": 8631,
      "sv": 8632,
      "gebe": 8633,
      "surrounded": 8634,
      "leihen": 8635,
      "unacceptable": 8636,
      "consumption": 8637,
      "contrary": 8638,
      "desire": 8639,
      "stärkung": 8640,
      "blood": 8641,
      "vielmehr": 8642,
      "satellite": 8643,
      "einsetzen": 8644,
      "photograph": 8645,
      "anschluss": 8646,
      "completed": 8647,
      "inflation": 8648,
      "dated": 8649,
      "creative": 8650,
      "greatest": 8651,
      "geschützt": 8652,
      "hingewiesen": 8653,
      "participate": 8654,
      "erwer": 8655,
      "tours": 8656,
      "election": 8657,
      "risiken": 8658,
      "öder": 8659,
      "zahlungs": 8660,
      "bör": 8661,
      "dau": 8662,
      "sides": 8663,
      "attractions": 8664,
      "dispos": 8665,
      "liqu": 8666,
      "organiz": 8667,
      "tzentr": 8668,
      "unterkunft": 8669,
      "abkommens": 8670,
      "defiz": 8671,
      "ida": 8672,
      "eure": 8673,
      "oppos": 8674,
      "piece": 8675,
      "maintenance": 8676,
      "hann": 8677,
      "anony": 8678,
      "schauen": 8679,
      "winden": 8680,
      "komment": 8681,
      "raise": 8682,
      "dedicated": 8683,
      "ordnungs": 8684,
      "decla": 8685,
      "europeans": 8686,
      "surrounding": 8687,
      "closer": 8688,
      "revision": 8689,
      "exclu": 8690,
      "arme": 8691,
      "rechtlichen": 8692,
      "konto": 8693,
      "iele": 8694,
      "paul": 8695,
      "enables": 8696,
      "renew": 8697,
      "explain": 8698,
      "rt": 8699,
      "ía": 8700,
      "strategien": 8701,
      "verfol": 8702,
      "irland": 8703,
      "gebil": 8704,
      "besitzt": 8705,
      "mitglieds": 8706,
      "intention": 8707,
      "infe": 8708,
      "bekannten": 8709,
      "wör": 8710,
      "bezeichnet": 8711,
      "totally": 8712,
      "weiterer": 8713,
      "continues": 8714,
      "stoffen": 8715,
      "ji": 8716,
      "beweg": 8717,
      "geschmack": 8718,
      "betracht": 8719,
      "strongly": 8720,
      "vig": 8721,
      "brut": 8722,
      "betrachten": 8723,
      "temperatur": 8724,
      "registration": 8725,
      "kers": 8726,
      "verlust": 8727,
      "nether": 8728,
      "vorrang": 8729,
      "zugriff": 8730,
      "latin": 8731,
      "internationaler": 8732,
      "burden": 8733,
      "nahm": 8734,
      "250": 8735,
      "eingeführt": 8736,
      "verträge": 8737,
      "controls": 8738,
      "spot": 8739,
      "geh": 8740,
      "öffnung": 8741,
      "beur": 8742,
      "wichtigste": 8743,
      "käufer": 8744,
      "änger": 8745,
      "ratsvorsitz": 8746,
      "perio": 8747,
      "camping": 8748,
      "jes": 8749,
      "entstanden": 8750,
      "gegenwärtigen": 8751,
      "expend": 8752,
      "händ": 8753,
      "ola": 8754,
      "ita": 8755,
      "farb": 8756,
      "gästen": 8757,
      "disease": 8758,
      "schloss": 8759,
      "flat": 8760,
      "vene": 8761,
      "correspon": 8762,
      "conditioning": 8763,
      "knü": 8764,
      "konvention": 8765,
      "phen": 8766,
      "plane": 8767,
      "contemporary": 8768,
      "independence": 8769,
      "experten": 8770,
      "blut": 8771,
      "individuals": 8772,
      "beginnt": 8773,
      "inseln": 8774,
      "altstadt": 8775,
      "colour": 8776,
      "ideale": 8777,
      "expression": 8778,
      "gebühren": 8779,
      "elected": 8780,
      "compliance": 8781,
      "mach": 8782,
      "parallel": 8783,
      "beratung": 8784,
      "annt": 8785,
      "politiken": 8786,
      "establishing": 8787,
      "iques": 8788,
      "entitled": 8789,
      "umfassende": 8790,
      "accessible": 8791,
      "honourable": 8792,
      "asien": 8793,
      "entre": 8794,
      "iertes": 8795,
      "priorität": 8796,
      "keinerlei": 8797,
      "erkennt": 8798,
      "europäer": 8799,
      "gestern": 8800,
      "appointed": 8801,
      "dynamic": 8802,
      "gesetze": 8803,
      "sofern": 8804,
      "wachstums": 8805,
      "unterstütze": 8806,
      "gallery": 8807,
      "geschäftsordnung": 8808,
      "updates": 8809,
      "whil": 8810,
      "sight": 8811,
      "plate": 8812,
      "prevention": 8813,
      "hart": 8814,
      "gate": 8815,
      "pod": 8816,
      "ressed": 8817,
      "austrian": 8818,
      "push": 8819,
      "afrikan": 8820,
      "golden": 8821,
      "68": 8822,
      "bestätigt": 8823,
      "exercise": 8824,
      "deser": 8825,
      "shutt": 8826,
      "usual": 8827,
      "üben": 8828,
      "ibr": 8829,
      "vorliegenden": 8830,
      "bindung": 8831,
      "arms": 8832,
      "konsum": 8833,
      "destroy": 8834,
      "vehicle": 8835,
      "stö": 8836,
      "erklärungen": 8837,
      "whilst": 8838,
      "branche": 8839,
      "premier": 8840,
      "payments": 8841,
      "grünen": 8842,
      "zustimmen": 8843,
      "heating": 8844,
      "krisen": 8845,
      "texts": 8846,
      "bedien": 8847,
      "entscheidungs": 8848,
      "meeres": 8849,
      "beteiligt": 8850,
      "hergestellt": 8851,
      "favor": 8852,
      "erde": 8853,
      "stimul": 8854,
      "stahl": 8855,
      "berichten": 8856,
      "compens": 8857,
      "prest": 8858,
      "nachrichten": 8859,
      "formal": 8860,
      "grounds": 8861,
      "anbieter": 8862,
      "stärk": 8863,
      "rol": 8864,
      "hinweis": 8865,
      "organised": 8866,
      "ends": 8867,
      "freiwill": 8868,
      "ausreichend": 8869,
      "ingt": 8870,
      "läuft": 8871,
      "gegangen": 8872,
      "expendit": 8873,
      "aircraft": 8874,
      "edge": 8875,
      "enormous": 8876,
      "selten": 8877,
      "sieben": 8878,
      "perfectly": 8879,
      "freunde": 8880,
      "stadtzentr": 8881,
      "physical": 8882,
      "approximately": 8883,
      "tabel": 8884,
      "werbe": 8885,
      "eye": 8886,
      "tenden": 8887,
      "nels": 8888,
      "schneller": 8889,
      "atlantic": 8890,
      "cheap": 8891,
      "stood": 8892,
      "nischen": 8893,
      "conclusions": 8894,
      "meant": 8895,
      "zuerst": 8896,
      "streben": 8897,
      "entspann": 8898,
      "fertig": 8899,
      "unto": 8900,
      "zellen": 8901,
      "wortet": 8902,
      "wahren": 8903,
      "kandidaten": 8904,
      "tai": 8905,
      "griechenland": 8906,
      "pake": 8907,
      "iro": 8908,
      "junge": 8909,
      "meldung": 8910,
      "iums": 8911,
      "fremden": 8912,
      "ansprü": 8913,
      "articles": 8914,
      "bewält": 8915,
      "tagung": 8916,
      "biggest": 8917,
      "advice": 8918,
      "marktes": 8919,
      "limits": 8920,
      "voraussetzungen": 8921,
      "schätz": 8922,
      "granted": 8923,
      "convinced": 8924,
      "appl": 8925,
      "carbon": 8926,
      "prüf": 8927,
      "nut": 8928,
      "protocol": 8929,
      "croat": 8930,
      "outstanding": 8931,
      "stimmt": 8932,
      "batter": 8933,
      "profile": 8934,
      "dokumente": 8935,
      "massen": 8936,
      "redner": 8937,
      "recovery": 8938,
      "balcon": 8939,
      "spending": 8940,
      "teilnehmen": 8941,
      "nötig": 8942,
      "asi": 8943,
      "vermögen": 8944,
      "größeren": 8945,
      "expensive": 8946,
      "eingere": 8947,
      "whate": 8948,
      "85": 8949,
      "projekten": 8950,
      "ystem": 8951,
      "itar": 8952,
      "indien": 8953,
      "lieferung": 8954,
      "whatever": 8955,
      "faces": 8956,
      "battle": 8957,
      "beinhaltet": 8958,
      "ergeben": 8959,
      "exem": 8960,
      "ifa": 8961,
      "stations": 8962,
      "langsam": 8963,
      "consen": 8964,
      "rezeption": 8965,
      "greek": 8966,
      "someone": 8967,
      "defe": 8968,
      "biolog": 8969,
      "strength": 8970,
      "genannte": 8971,
      "garantieren": 8972,
      "weapons": 8973,
      "edia": 8974,
      "solcher": 8975,
      "zahlungen": 8976,
      "stif": 8977,
      "hielt": 8978,
      "lokal": 8979,
      "illa": 8980,
      "starken": 8981,
      "divide": 8982,
      "failed": 8983,
      "ife": 8984,
      "laid": 8985,
      "itive": 8986,
      "song": 8987,
      "drän": 8988,
      "supple": 8989,
      "spricht": 8990,
      "netherlands": 8991,
      "kriegs": 8992,
      "chosen": 8993,
      "furnished": 8994,
      "ärm": 8995,
      "unable": 8996,
      "globalisierung": 8997,
      "gone": 8998,
      "speziellen": 8999,
      "niture": 9000,
      "safeguard": 9001,
      "diskriminierung": 9002,
      "credi": 9003,
      "garantie": 9004,
      "sd": 9005,
      "illustr": 9006,
      "teuer": 9007,
      "ablen": 9008,
      "erwachsen": 9009,
      "anliegen": 9010,
      "bewegen": 9011,
      "verbundenen": 9012,
      "pick": 9013,
      "dinner": 9014,
      "m2": 9015,
      "gerufen": 9016,
      "buchen": 9017,
      "kaffe": 9018,
      "subsequ": 9019,
      "contents": 9020,
      "participants": 9021,
      "continuing": 9022,
      "division": 9023,
      "portfo": 9024,
      "factors": 9025,
      "welchen": 9026,
      "existence": 9027,
      "haber": 9028,
      "mindest": 9029,
      "bann": 9030,
      "congress": 9031,
      "tried": 9032,
      "guter": 9033,
      "metall": 9034,
      "flexibilität": 9035,
      "letzter": 9036,
      "bust": 9037,
      "protest": 9038,
      "euros": 9039,
      "achieving": 9040,
      "todes": 9041,
      "2013": 9042,
      "clin": 9043,
      "candidate": 9044,
      "abol": 9045,
      "demokraten": 9046,
      "sav": 9047,
      "hängt": 9048,
      "bergen": 9049,
      "thom": 9050,
      "norden": 9051,
      "laufe": 9052,
      "scr": 9053,
      "ienen": 9054,
      "ereignisse": 9055,
      "anton": 9056,
      "economies": 9057,
      "wirel": 9058,
      "900": 9059,
      "prag": 9060,
      "rotary": 9061,
      "41": 9062,
      "eis": 9063,
      "concil": 9064,
      "argent": 9065,
      "männer": 9066,
      "mern": 9067,
      "examples": 9068,
      "án": 9069,
      "persönliche": 9070,
      "ignor": 9071,
      "entschließungsantrag": 9072,
      "toile": 9073,
      "bles": 9074,
      "geschle": 9075,
      "outdoor": 9076,
      "fraud": 9077,
      "verzeich": 9078,
      "aux": 9079,
      "politiker": 9080,
      "eight": 9081,
      "fahrer": 9082,
      "geöffnet": 9083,
      "politisch": 9084,
      "ausland": 9085,
      "liability": 9086,
      "wireless": 9087,
      "wc": 9088,
      "ader": 9089,
      "species": 9090,
      "secon": 9091,
      "driving": 9092,
      "müs": 9093,
      "fiscal": 9094,
      "heritage": 9095,
      "beglück": 9096,
      "pilot": 9097,
      "rightly": 9098,
      "commerce": 9099,
      "leon": 9100,
      "colon": 9101,
      "declaration": 9102,
      "einkaufs": 9103,
      "dlichen": 9104,
      "ambitious": 9105,
      "ania": 9106,
      "urt": 9107,
      "manufacturing": 9108,
      "evaluation": 9109,
      "120": 9110,
      "psycho": 9111,
      "erscheinen": 9112,
      "43": 9113,
      "kohä": 9114,
      "glad": 9115,
      "java": 9116,
      "kernel": 9117,
      "mall": 9118,
      "wendet": 9119,
      "theit": 9120,
      "explan": 9121,
      "britischen": 9122,
      "skin": 9123,
      "botschaft": 9124,
      "harm": 9125,
      "commitments": 9126,
      "gegenteil": 9127,
      "nearly": 9128,
      "ungar": 9129,
      "seien": 9130,
      "accounts": 9131,
      "empfehlungen": 9132,
      "balt": 9133,
      "verhinder": 9134,
      "servers": 9135,
      "angriff": 9136,
      "kehren": 9137,
      "conduct": 9138,
      "mechanism": 9139,
      "technological": 9140,
      "virtual": 9141,
      "unterschiede": 9142,
      "putting": 9143,
      "tibet": 9144,
      "vereign": 9145,
      "kranken": 9146,
      "mysql": 9147,
      "fuel": 9148,
      "erhöht": 9149,
      "arz": 9150,
      "sovereign": 9151,
      "nachhaltige": 9152,
      "identity": 9153,
      "successfully": 9154,
      "submit": 9155,
      "ological": 9156,
      "einzelne": 9157,
      "ula": 9158,
      "constantly": 9159,
      "verabschie": 9160,
      "quarter": 9161,
      "palestinian": 9162,
      "iced": 9163,
      "überprüfung": 9164,
      "asking": 9165,
      "frühstücks": 9166,
      "mittelt": 9167,
      "situations": 9168,
      "drü": 9169,
      "landscape": 9170,
      "szen": 9171,
      "saison": 9172,
      "qualified": 9173,
      "hauptsächlich": 9174,
      "ersatz": 9175,
      "mou": 9176,
      "assign": 9177,
      "verste": 9178,
      "erhöhung": 9179,
      "switch": 9180,
      "tri": 9181,
      "esty": 9182,
      "märkten": 9183,
      "verbot": 9184,
      "inzwischen": 9185,
      "provider": 9186,
      "maßnahme": 9187,
      "modul": 9188,
      "outcome": 9189,
      "boat": 9190,
      "obligations": 9191,
      "corner": 9192,
      "bibliothe": 9193,
      "syr": 9194,
      "schlags": 9195,
      "nament": 9196,
      "oral": 9197,
      "sammel": 9198,
      "drop": 9199,
      "touristen": 9200,
      "gesetzes": 9201,
      "parameter": 9202,
      "holung": 9203,
      "noise": 9204,
      "distin": 9205,
      "grammat": 9206,
      "bedroom": 9207,
      "bic": 9208,
      "remove": 9209,
      "reaktion": 9210,
      "orien": 9211,
      "splan": 9212,
      "bringing": 9213,
      "diction": 9214,
      "tau": 9215,
      "zil": 9216,
      "bou": 9217,
      "istisch": 9218,
      "nein": 9219,
      "og": 9220,
      "verlangen": 9221,
      "colleague": 9222,
      "zit": 9223,
      "informiert": 9224,
      "targets": 9225,
      "ktors": 9226,
      "1992": 9227,
      "durchschnitt": 9228,
      "string": 9229,
      "gegensatz": 9230,
      "panoram": 9231,
      "besorg": 9232,
      "liberalisierung": 9233,
      "fraktionen": 9234,
      "skype": 9235,
      "freiheiten": 9236,
      "praktisch": 9237,
      "geor": 9238,
      "freit": 9239,
      "quote": 9240,
      "tank": 9241,
      "pleasure": 9242,
      "unzu": 9243,
      "gewisse": 9244,
      "contained": 9245,
      "approval": 9246,
      "recommendations": 9247,
      "binding": 9248,
      "reve": 9249,
      "default": 9250,
      "gespe": 9251,
      "named": 9252,
      "previously": 9253,
      "zieht": 9254,
      "territorial": 9255,
      "couple": 9256,
      "öger": 9257,
      "atlant": 9258,
      "kompetenz": 9259,
      "ilien": 9260,
      "sorgfält": 9261,
      "staates": 9262,
      "institut": 9263,
      "extend": 9264,
      "expertise": 9265,
      "swert": 9266,
      "verarbeitung": 9267,
      "stars": 9268,
      "genauso": 9269,
      "dans": 9270,
      "ausstellung": 9271,
      "disable": 9272,
      "griech": 9273,
      "zir": 9274,
      "repräsent": 9275,
      "varian": 9276,
      "advantages": 9277,
      "außerord": 9278,
      "guaranteed": 9279,
      "edit": 9280,
      "geschie": 9281,
      "konkur": 9282,
      "süden": 9283,
      "tod": 9284,
      "connect": 9285,
      "kürzlich": 9286,
      "amongst": 9287,
      "einverstanden": 9288,
      "realität": 9289,
      "erfordern": 9290,
      "freude": 9291,
      "intellig": 9292,
      "patients": 9293,
      "cookies": 9294,
      "emissionen": 9295,
      "bestandteil": 9296,
      "geschieht": 9297,
      "wohnungen": 9298,
      "leisure": 9299,
      "tiere": 9300,
      "planned": 9301,
      "schulden": 9302,
      "komponenten": 9303,
      "einerseits": 9304,
      "ünd": 9305,
      "kleiner": 9306,
      "threaten": 9307,
      "hälfte": 9308,
      "isierungs": 9309,
      "nationaler": 9310,
      "voran": 9311,
      "1000": 9312,
      "regelmäßig": 9313,
      "zufolge": 9314,
      "collective": 9315,
      "fischer": 9316,
      "yu": 9317,
      "direkte": 9318,
      "leb": 9319,
      "urlau": 9320,
      "calcul": 9321,
      "fee": 9322,
      "heavy": 9323,
      "expenditure": 9324,
      "a5": 9325,
      "deiner": 9326,
      "ausländ": 9327,
      "nahen": 9328,
      "unabhängigkeit": 9329,
      "marke": 9330,
      "ala": 9331,
      "capable": 9332,
      "verbrechen": 9333,
      "pg": 9334,
      "looks": 9335,
      "berühmten": 9336,
      "tö": 9337,
      "drink": 9338,
      "schools": 9339,
      "effektiv": 9340,
      "änden": 9341,
      "dream": 9342,
      "maria": 9343,
      "automatic": 9344,
      "geste": 9345,
      "smaller": 9346,
      "consensus": 9347,
      "comply": 9348,
      "mikro": 9349,
      "konzer": 9350,
      "einzigen": 9351,
      "diagno": 9352,
      "incent": 9353,
      "teilnahme": 9354,
      "constant": 9355,
      "kontinu": 9356,
      "employed": 9357,
      "jüngsten": 9358,
      "geboren": 9359,
      "echte": 9360,
      "umgeben": 9361,
      "assum": 9362,
      "testen": 9363,
      "slight": 9364,
      "zed": 9365,
      "onia": 9366,
      "consists": 9367,
      "vorbereitung": 9368,
      "bb": 9369,
      "kill": 9370,
      "neo": 9371,
      "thedr": 9372,
      "jose": 9373,
      "jahrzehn": 9374,
      "bosn": 9375,
      "seeking": 9376,
      "marit": 9377,
      "depending": 9378,
      "capt": 9379,
      "hoffnung": 9380,
      "leads": 9381,
      "voy": 9382,
      "competence": 9383,
      "chain": 9384,
      "bauern": 9385,
      "anze": 9386,
      "ipal": 9387,
      "personally": 9388,
      "merely": 9389,
      "output": 9390,
      "beteiligten": 9391,
      "sess": 9392,
      "nl": 9393,
[...]
